{
  "version": "1.0",
  "truncation": null,
  "padding": null,
  "added_tokens": [
    {
      "id": 0,
      "content": "[PAD]",
      "single_word": false,
      "lstrip": false,
      "rstrip": false,
      "normalized": false,
      "special": true
    },
    {
      "id": 1,
      "content": "[UNK]",
      "single_word": false,
      "lstrip": false,
      "rstrip": false,
      "normalized": false,
      "special": true
    },
    {
      "id": 2,
      "content": "[SOS]",
      "single_word": false,
      "lstrip": false,
      "rstrip": false,
      "normalized": false,
      "special": true
    },
    {
      "id": 3,
      "content": "[EOS]",
      "single_word": false,
      "lstrip": false,
      "rstrip": false,
      "normalized": false,
      "special": true
    }
  ],
  "normalizer": null,
  "pre_tokenizer": {
    "type": "Whitespace"
  },
  "post_processor": null,
  "decoder": null,
  "model": {
    "type": "BPE",
    "dropout": null,
    "unk_token": "[UNK]",
    "continuing_subword_prefix": null,
    "end_of_word_suffix": null,
    "fuse_unk": false,
    "byte_fallback": false,
    "ignore_merges": false,
    "vocab": {
      "[PAD]": 0,
      "[UNK]": 1,
      "[SOS]": 2,
      "[EOS]": 3,
      "!": 4,
      ".": 5,
      "?": 6,
      "a": 7,
      "b": 8,
      "c": 9,
      "d": 10,
      "e": 11,
      "f": 12,
      "g": 13,
      "h": 14,
      "i": 15,
      "j": 16,
      "k": 17,
      "l": 18,
      "m": 19,
      "n": 20,
      "o": 21,
      "p": 22,
      "q": 23,
      "r": 24,
      "s": 25,
      "t": 26,
      "u": 27,
      "v": 28,
      "w": 29,
      "x": 30,
      "y": 31,
      "z": 32,
      "th": 33,
      "the": 34,
      "re": 35,
      "in": 36,
      "te": 37,
      "on": 38,
      "an": 39,
      "en": 40,
      "st": 41,
      "er": 42,
      "ti": 43,
      "or": 44,
      "al": 45,
      "is": 46,
      "to": 47,
      "es": 48,
      "ed": 49,
      "ec": 50,
      "ate": 51,
      "ing": 52,
      "ar": 53,
      "at": 54,
      "tion": 55,
      "of": 56,
      "le": 57,
      "ro": 58,
      "ur": 59,
      "fi": 60,
      "as": 61,
      "ts": 62,
      "ac": 63,
      "de": 64,
      "and": 65,
      "me": 66,
      "con": 67,
      "co": 68,
      "se": 69,
      "for": 70,
      "ch": 71,
      "ce": 72,
      "ter": 73,
      "ad": 74,
      "this": 75,
      "ret": 76,
      "cre": 77,
      "urn": 78,
      "wi": 79,
      "return": 80,
      "ent": 81,
      "ne": 82,
      "ue": 83,
      "str": 84,
      "create": 85,
      "iv": 86,
      "us": 87,
      "ge": 88,
      "un": 89,
      "sp": 90,
      "lo": 91,
      "ation": 92,
      "it": 93,
      "with": 94,
      "if": 95,
      "returns": 96,
      "ri": 97,
      "val": 98,
      "si": 99,
      "new": 100,
      "giv": 101,
      "ap": 102,
      "given": 103,
      "wh": 104,
      "no": 105,
      "ul": 106,
      "res": 107,
      "be": 108,
      "mp": 109,
      "ut": 110,
      "ect": 111,
      "li": 112,
      "all": 113,
      "pro": 114,
      "ifi": 115,
      "rom": 116,
      "from": 117,
      "od": 118,
      "ex": 119,
      "spec": 120,
      "ob": 121,
      "ab": 122,
      "creates": 123,
      "specifi": 124,
      "by": 125,
      "obj": 126,
      "ver": 127,
      "id": 128,
      "um": 129,
      "up": 130,
      "ra": 131,
      "that": 132,
      "specified": 133,
      "uc": 134,
      "ty": 135,
      "meth": 136,
      "method": 137,
      "object": 138,
      "per": 139,
      "po": 140,
      "il": 141,
      "mo": 142,
      "ess": 143,
      "stan": 144,
      "tr": 145,
      "value": 146,
      "ame": 147,
      "add": 148,
      "struc": 149,
      "ren": 150,
      "ass": 151,
      "bu": 152,
      "ma": 153,
      "string": 154,
      "instan": 155,
      "ve": 156,
      "di": 157,
      "set": 158,
      "ther": 159,
      "par": 160,
      "ly": 161,
      "ke": 162,
      "cl": 163,
      "construc": 164,
      "ta": 165,
      "do": 166,
      "vi": 167,
      "ll": 168,
      "ment": 169,
      "am": 170,
      "qu": 171,
      "ten": 172,
      "ser": 173,
      "able": 174,
      "la": 175,
      "ted": 176,
      "instance": 177,
      "comp": 178,
      "form": 179,
      "age": 180,
      "ates": 181,
      "ption": 182,
      "dat": 183,
      "pe": 184,
      "ol": 185,
      "read": 186,
      "el": 187,
      "eck": 188,
      "sh": 189,
      "end": 190,
      "iz": 191,
      "check": 192,
      "test": 193,
      "ray": 194,
      "not": 195,
      "cur": 196,
      "array": 197,
      "xt": 198,
      "bo": 199,
      "call": 200,
      "list": 201,
      "out": 202,
      "tes": 203,
      "has": 204,
      "whe": 205,
      "der": 206,
      "com": 207,
      "ic": 208,
      "rent": 209,
      "constructs": 210,
      "rep": 211,
      "are": 212,
      "whi": 213,
      "inter": 214,
      "mess": 215,
      "used": 216,
      "file": 217,
      "ack": 218,
      "loc": 219,
      "put": 220,
      "ace": 221,
      "ini": 222,
      "sion": 223,
      "ult": 224,
      "ber": 225,
      "we": 226,
      "que": 227,
      "ele": 228,
      "class": 229,
      "ents": 230,
      "type": 231,
      "su": 232,
      "app": 233,
      "aliz": 234,
      "remo": 235,
      "def": 236,
      "true": 237,
      "whether": 238,
      "data": 239,
      "ine": 240,
      "name": 241,
      "int": 242,
      "pa": 243,
      "rec": 244,
      "get": 245,
      "key": 246,
      "so": 247,
      "num": 248,
      "current": 249,
      "ity": 250,
      "comm": 251,
      "stre": 252,
      "message": 253,
      "user": 254,
      "red": 255,
      "stream": 256,
      "ase": 257,
      "text": 258,
      "tri": 259,
      "ception": 260,
      "ated": 261,
      "ach": 262,
      "number": 263,
      "fe": 264,
      "using": 265,
      "into": 266,
      "initi": 267,
      "its": 268,
      "ds": 269,
      "adds": 270,
      "when": 271,
      "one": 272,
      "can": 273,
      "char": 274,
      "des": 275,
      "tain": 276,
      "gin": 277,
      "wri": 278,
      "pl": 279,
      "ection": 280,
      "upd": 281,
      "gen": 282,
      "map": 283,
      "valu": 284,
      "tor": 285,
      "sto": 286,
      "ters": 287,
      "ves": 288,
      "mat": 289,
      "tem": 290,
      "exception": 291,
      "ag": 292,
      "element": 293,
      "fiel": 294,
      "gener": 295,
      "cess": 296,
      "run": 297,
      "use": 298,
      "ator": 299,
      "fo": 300,
      "contain": 301,
      "reg": 302,
      "state": 303,
      "quest": 304,
      "proper": 305,
      "les": 306,
      "lay": 307,
      "node": 308,
      "sho": 309,
      "conver": 310,
      "load": 311,
      "checks": 312,
      "prov": 313,
      "ding": 314,
      "request": 315,
      "defa": 316,
      "star": 317,
      "values": 318,
      "av": 319,
      "provid": 320,
      "time": 321,
      "ev": 322,
      "ort": 323,
      "repres": 324,
      "any": 325,
      "tribu": 326,
      "pre": 327,
      "default": 328,
      "attribu": 329,
      "lic": 330,
      "gn": 331,
      "lis": 332,
      "log": 333,
      "ress": 334,
      "line": 335,
      "chan": 336,
      "vie": 337,
      "main": 338,
      "parame": 339,
      "dis": 340,
      "gh": 341,
      "view": 342,
      "row": 343,
      "input": 344,
      "wor": 345,
      "dex": 346,
      "byte": 347,
      "other": 348,
      "exp": 349,
      "initializ": 350,
      "hand": 351,
      "ans": 352,
      "which": 353,
      "box": 354,
      "enti": 355,
      "charac": 356,
      "back": 357,
      "ci": 358,
      "will": 359,
      "ses": 360,
      "sy": 361,
      "ull": 362,
      "face": 363,
      "valid": 364,
      "called": 365,
      "ff": 366,
      "cri": 367,
      "col": 368,
      "buil": 369,
      "ces": 370,
      "code": 371,
      "sup": 372,
      "urce": 373,
      "sub": 374,
      "im": 375,
      "term": 376,
      "pr": 377,
      "sets": 378,
      "tive": 379,
      "ure": 380,
      "white": 381,
      "index": 382,
      "field": 383,
      "dec": 384,
      "confi": 385,
      "ction": 386,
      "he": 387,
      "plu": 388,
      "und": 389,
      "mple": 390,
      "plugin": 391,
      "low": 392,
      "represent": 393,
      "removes": 394,
      "ok": 395,
      "ble": 396,
      "action": 397,
      "cal": 398,
      "listen": 399,
      "ary": 400,
      "config": 401,
      "ry": 402,
      "ments": 403,
      "interface": 404,
      "conn": 405,
      "update": 406,
      "ers": 407,
      "ting": 408,
      "fin": 409,
      "bet": 410,
      "ist": 411,
      "conten": 412,
      "sign": 413,
      "construct": 414,
      "cor": 415,
      "siz": 416,
      "clo": 417,
      "ween": 418,
      "between": 419,
      "unction": 420,
      "process": 421,
      "whitebox": 422,
      "wn": 423,
      "mode": 424,
      "resp": 425,
      "supp": 426,
      "property": 427,
      "null": 428,
      "ava": 429,
      "wo": 430,
      "rap": 431,
      "attribute": 432,
      "lock": 433,
      "function": 434,
      "provided": 435,
      "trans": 436,
      "match": 437,
      "tool": 438,
      "respon": 439,
      "event": 440,
      "uld": 441,
      "au": 442,
      "over": 443,
      "tory": 444,
      "bas": 445,
      "equ": 446,
      "ari": 447,
      "size": 448,
      "sel": 449,
      "fil": 450,
      "sing": 451,
      "ml": 452,
      "ument": 453,
      "posi": 454,
      "format": 455,
      "item": 456,
      "ger": 457,
      "oper": 458,
      "vice": 459,
      "op": 460,
      "ector": 461,
      "direc": 462,
      "table": 463,
      "sa": 464,
      "been": 465,
      "determ": 466,
      "result": 467,
      "commun": 468,
      "two": 469,
      "dele": 470,
      "buff": 471,
      "gets": 472,
      "output": 473,
      "ror": 474,
      "emp": 475,
      "cop": 476,
      "quer": 477,
      "gro": 478,
      "tifi": 479,
      "play": 480,
      "exist": 481,
      "ard": 482,
      "nam": 483,
      "pass": 484,
      "server": 485,
      "cation": 486,
      "command": 487,
      "cach": 488,
      "ints": 489,
      "ha": 490,
      "point": 491,
      "path": 492,
      "communic": 493,
      "cle": 494,
      "error": 495,
      "fac": 496,
      "character": 497,
      "buffer": 498,
      "representation": 499,
      "order": 500,
      "communicate": 501,
      "regis": 502,
      "feren": 503,
      "should": 504,
      "write": 505,
      "position": 506,
      "lon": 507,
      "only": 508,
      "dic": 509,
      "empty": 510,
      "compon": 511,
      "query": 512,
      "but": 513,
      "ima": 514,
      "entry": 515,
      "inv": 516,
      "ects": 517,
      "enco": 518,
      "ree": 519,
      "exec": 520,
      "listener": 521,
      "ho": 522,
      "vari": 523,
      "vis": 524,
      "act": 525,
      "ning": 526,
      "based": 527,
      "bytes": 528,
      "pri": 529,
      "hash": 530,
      "doc": 531,
      "ir": 532,
      "arch": 533,
      "om": 534,
      "start": 535,
      "prog": 536,
      "arg": 537,
      "mod": 538,
      "perform": 539,
      "uration": 540,
      "ines": 541,
      "vector": 542,
      "equal": 543,
      "coll": 544,
      "reso": 545,
      "ran": 546,
      "ute": 547,
      "option": 548,
      "af": 549,
      "dra": 550,
      "man": 551,
      "coun": 552,
      "work": 553,
      "cap": 554,
      "ence": 555,
      "ord": 556,
      "xml": 557,
      "parameters": 558,
      "ken": 559,
      "son": 560,
      "led": 561,
      "image": 562,
      "ion": 563,
      "remove": 564,
      "descri": 565,
      "case": 566,
      "ive": 567,
      "ected": 568,
      "ializ": 569,
      "next": 570,
      "ca": 571,
      "fir": 572,
      "ip": 573,
      "tail": 574,
      "writes": 575,
      "iter": 576,
      "tests": 577,
      "mar": 578,
      "indic": 579,
      "men": 580,
      "cul": 581,
      "reads": 582,
      "connection": 583,
      "ous": 584,
      "filter": 585,
      "copy": 586,
      "eng": 587,
      "wa": 588,
      "elements": 589,
      "stem": 590,
      "first": 591,
      "fra": 592,
      "convert": 593,
      "cache": 594,
      "source": 595,
      "block": 596,
      "mul": 597,
      "ght": 598,
      "group": 599,
      "send": 600,
      "ill": 601,
      "mem": 602,
      "inte": 603,
      "chang": 604,
      "bin": 605,
      "runs": 606,
      "operation": 607,
      "parameter": 608,
      "token": 609,
      "rece": 610,
      "head": 611,
      "each": 612,
      "asso": 613,
      "context": 614,
      "ded": 615,
      "notifi": 616,
      "have": 617,
      "ui": 618,
      "long": 619,
      "associ": 620,
      "bit": 621,
      "ory": 622,
      "was": 623,
      "formation": 624,
      "til": 625,
      "raph": 626,
      "detail": 627,
      "ust": 628,
      "model": 629,
      "ati": 630,
      "ask": 631,
      "instanti": 632,
      "does": 633,
      "ties": 634,
      "progress": 635,
      "after": 636,
      "off": 637,
      "search": 638,
      "converts": 639,
      "umn": 640,
      "java": 641,
      "tag": 642,
      "json": 643,
      "ori": 644,
      "imple": 645,
      "fix": 646,
      "cli": 647,
      "ou": 648,
      "column": 649,
      "single": 650,
      "graph": 651,
      "service": 652,
      "component": 653,
      "system": 654,
      "mi": 655,
      "tree": 656,
      "referen": 657,
      "ild": 658,
      "ise": 659,
      "configuration": 660,
      "throw": 661,
      "same": 662,
      "child": 663,
      "ating": 664,
      "nal": 665,
      "cont": 666,
      "ang": 667,
      "ression": 668,
      "requ": 669,
      "alse": 670,
      "content": 671,
      "append": 672,
      "pop": 673,
      "ht": 674,
      "false": 675,
      "local": 676,
      "temp": 677,
      "stack": 678,
      "document": 679,
      "location": 680,
      "thread": 681,
      "version": 682,
      "then": 683,
      "url": 684,
      "tar": 685,
      "updates": 686,
      "pos": 687,
      "information": 688,
      "ron": 689,
      "tiv": 690,
      "identi": 691,
      "multi": 692,
      "contains": 693,
      "store": 694,
      "inser": 695,
      "comple": 696,
      "date": 697,
      "initializes": 698,
      "ies": 699,
      "names": 700,
      "apping": 701,
      "draw": 702,
      "matri": 703,
      "associated": 704,
      "allow": 705,
      "specific": 706,
      "sch": 707,
      "pu": 708,
      "leng": 709,
      "open": 710,
      "under": 711,
      "og": 712,
      "display": 713,
      "ket": 714,
      "base": 715,
      "collection": 716,
      "length": 717,
      "target": 718,
      "down": 719,
      "response": 720,
      "range": 721,
      "handl": 722,
      "objects": 723,
      "stat": 724,
      "expression": 725,
      "utes": 726,
      "need": 727,
      "builder": 728,
      "matrix": 729,
      "datab": 730,
      "clear": 731,
      "resource": 732,
      "ally": 733,
      "directory": 734,
      "tp": 735,
      "incl": 736,
      "change": 737,
      "calcul": 738,
      "serializ": 739,
      "activ": 740,
      "dou": 741,
      "ages": 742,
      "ton": 743,
      "contents": 744,
      "invok": 745,
      "sec": 746,
      "queue": 747,
      "ref": 748,
      "lied": 749,
      "pt": 750,
      "sk": 751,
      "database": 752,
      "factory": 753,
      "address": 754,
      "last": 755,
      "roll": 756,
      "orted": 757,
      "client": 758,
      "determines": 759,
      "max": 760,
      "ual": 761,
      "manag": 762,
      "find": 763,
      "generates": 764,
      "wise": 765,
      "pan": 766,
      "ain": 767,
      "passed": 768,
      "ables": 769,
      "et": 770,
      "mapping": 771,
      "there": 772,
      "without": 773,
      "mark": 774,
      "sequ": 775,
      "vel": 776,
      "pat": 777,
      "info": 778,
      "containing": 779,
      "hel": 780,
      "space": 781,
      "fa": 782,
      "rect": 783,
      "syn": 784,
      "dep": 785,
      "running": 786,
      "mis": 787,
      "internal": 788,
      "alog": 789,
      "hi": 790,
      "abled": 791,
      "lin": 792,
      "count": 793,
      "color": 794,
      "reference": 795,
      "header": 796,
      "tell": 797,
      "show": 798,
      "characters": 799,
      "task": 800,
      "build": 801,
      "cu": 802,
      "integer": 803,
      "fore": 804,
      "lication": 805,
      "level": 806,
      "receiv": 807,
      "entity": 808,
      "setting": 809,
      "initial": 810,
      "oc": 811,
      "messages": 812,
      "currently": 813,
      "min": 814,
      "fields": 815,
      "ot": 816,
      "another": 817,
      "non": 818,
      "util": 819,
      "stop": 820,
      "otherwise": 821,
      "implement": 822,
      "repl": 823,
      "signed": 824,
      "andom": 825,
      "existing": 826,
      "sc": 827,
      "ify": 828,
      "status": 829,
      "ule": 830,
      "ature": 831,
      "http": 832,
      "cer": 833,
      "double": 834,
      "net": 835,
      "prod": 836,
      "avail": 837,
      "ready": 838,
      "notification": 839,
      "files": 840,
      "properties": 841,
      "button": 842,
      "lying": 843,
      "supplied": 844,
      "ined": 845,
      "sed": 846,
      "overri": 847,
      "session": 848,
      "cate": 849,
      "ired": 850,
      "inclu": 851,
      "initialize": 852,
      "access": 853,
      "random": 854,
      "orts": 855,
      "exten": 856,
      "wr": 857,
      "parse": 858,
      "available": 859,
      "before": 860,
      "where": 861,
      "print": 862,
      "indicates": 863,
      "tex": 864,
      "itor": 865,
      "dialog": 866,
      "you": 867,
      "frame": 868,
      "ole": 869,
      "word": 870,
      "nodes": 871,
      "attributes": 872,
      "top": 873,
      "determine": 874,
      "tim": 875,
      "correspon": 876,
      "instantiates": 877,
      "struction": 878,
      "win": 879,
      "ordin": 880,
      "iterator": 881,
      "notation": 882,
      "tered": 883,
      "handler": 884,
      "wrap": 885,
      "parses": 886,
      "matches": 887,
      "ush": 888,
      "gment": 889,
      "late": 890,
      "prefix": 891,
      "argument": 892,
      "modifi": 893,
      "edi": 894,
      "make": 895,
      "parti": 896,
      "sequence": 897,
      "scri": 898,
      "within": 899,
      "ast": 900,
      "than": 901,
      "den": 902,
      "manager": 903,
      "ject": 904,
      "asser": 905,
      "handle": 906,
      "lar": 907,
      "offset": 908,
      "delete": 909,
      "activity": 910,
      "curs": 911,
      "ig": 912,
      "enabled": 913,
      "instruction": 914,
      "kes": 915,
      "bug": 916,
      "application": 917,
      "helper": 918,
      "defined": 919,
      "stor": 920,
      "labe": 921,
      "port": 922,
      "typ": 923,
      "link": 924,
      "tern": 925,
      "ram": 926,
      "underlying": 927,
      "windo": 928,
      "ative": 929,
      "register": 930,
      "bar": 931,
      "uri": 932,
      "member": 933,
      "some": 934,
      "already": 935,
      "window": 936,
      "see": 937,
      "close": 938,
      "ending": 939,
      "pres": 940,
      "ss": 941,
      "reader": 942,
      "identifi": 943,
      "bean": 944,
      "changes": 945,
      "coordin": 946,
      "mon": 947,
      "acity": 948,
      "stati": 949,
      "tra": 950,
      "zer": 951,
      "just": 952,
      "sq": 953,
      "label": 954,
      "uments": 955,
      "side": 956,
      "starts": 957,
      "pair": 958,
      "imp": 959,
      "implementation": 960,
      "ant": 961,
      "record": 962,
      "let": 963,
      "capacity": 964,
      "ld": 965,
      "ares": 966,
      "fla": 967,
      "chron": 968,
      "ner": 969,
      "constan": 970,
      "api": 971,
      "parent": 972,
      "events": 973,
      "anim": 974,
      "ensu": 975,
      "nor": 976,
      "stand": 977,
      "go": 978,
      "created": 979,
      "more": 980,
      "variable": 981,
      "pool": 982,
      "fol": 983,
      "corresponding": 984,
      "ax": 985,
      "flo": 986,
      "way": 987,
      "multip": 988,
      "our": 989,
      "produc": 990,
      "da": 991,
      "ical": 992,
      "rele": 993,
      "cy": 994,
      "medi": 995,
      "fl": 996,
      "loads": 997,
      "them": 998,
      "simple": 999,
      "being": 1000,
      "exists": 1001,
      "boole": 1002,
      "selected": 1003,
      "ges": 1004,
      "gui": 1005,
      "annotation": 1006,
      "ep": 1007,
      "host": 1008,
      "closes": 1009,
      "part": 1010,
      "ance": 1011,
      "ries": 1012,
      "wid": 1013,
      "prints": 1014,
      "generate": 1015,
      "ved": 1016,
      "cause": 1017,
      "ph": 1018,
      "skill": 1019,
      "network": 1020,
      "scal": 1021,
      "menu": 1022,
      "memory": 1023,
      "still": 1024,
      "performs": 1025,
      "sche": 1026,
      "handles": 1027,
      "writer": 1028,
      "generated": 1029,
      "dest": 1030,
      "ults": 1031,
      "gori": 1032,
      "ste": 1033,
      "norm": 1034,
      "constant": 1035,
      "entries": 1036,
      "fail": 1037,
      "generator": 1038,
      "device": 1039,
      "found": 1040,
      "added": 1041,
      "encoding": 1042,
      "fill": 1043,
      "ven": 1044,
      "hol": 1045,
      "page": 1046,
      "mb": 1047,
      "ful": 1048,
      "uses": 1049,
      "sis": 1050,
      "flag": 1051,
      "boolean": 1052,
      "pack": 1053,
      "war": 1054,
      "aces": 1055,
      "rol": 1056,
      "post": 1057,
      "changed": 1058,
      "points": 1059,
      "ose": 1060,
      "sum": 1061,
      "ging": 1062,
      "visi": 1063,
      "layout": 1064,
      "required": 1065,
      "look": 1066,
      "encoded": 1067,
      "about": 1068,
      "dition": 1069,
      "ft": 1070,
      "ility": 1071,
      "zero": 1072,
      "decod": 1073,
      "retri": 1074,
      "vious": 1075,
      "reset": 1076,
      "pattern": 1077,
      "inserts": 1078,
      "transform": 1079,
      "sql": 1080,
      "root": 1081,
      "previous": 1082,
      "arguments": 1083,
      "scroll": 1084,
      "condition": 1085,
      "pub": 1086,
      "methods": 1087,
      "very": 1088,
      "angle": 1089,
      "incre": 1090,
      "nel": 1091,
      "classes": 1092,
      "rel": 1093,
      "appro": 1094,
      "ight": 1095,
      "urces": 1096,
      "constr": 1097,
      "stri": 1098,
      "ution": 1099,
      "control": 1100,
      "acce": 1101,
      "ign": 1102,
      "mission": 1103,
      "tic": 1104,
      "feed": 1105,
      "ations": 1106,
      "provider": 1107,
      "uni": 1108,
      "listeners": 1109,
      "unit": 1110,
      "soc": 1111,
      "computes": 1112,
      "compute": 1113,
      "ecess": 1114,
      "mut": 1115,
      "cally": 1116,
      "deletes": 1117,
      "clears": 1118,
      "panel": 1119,
      "pi": 1120,
      "algori": 1121,
      "registers": 1122,
      "accor": 1123,
      "algorith": 1124,
      "debug": 1125,
      "invoked": 1126,
      "auto": 1127,
      "transaction": 1128,
      "custo": 1129,
      "ms": 1130,
      "distri": 1131,
      "resets": 1132,
      "os": 1133,
      "storage": 1134,
      "statement": 1135,
      "separ": 1136,
      "scre": 1137,
      "custom": 1138,
      "settings": 1139,
      "according": 1140,
      "region": 1141,
      "conven": 1142,
      "supported": 1143,
      "items": 1144,
      "scan": 1145,
      "float": 1146,
      "screen": 1147,
      "types": 1148,
      "begin": 1149,
      "compares": 1150,
      "distribu": 1151,
      "keys": 1152,
      "standard": 1153,
      "description": 1154,
      "necess": 1155,
      "thro": 1156,
      "try": 1157,
      "sty": 1158,
      "writ": 1159,
      "xception": 1160,
      "cance": 1161,
      "container": 1162,
      "calculates": 1163,
      "clus": 1164,
      "enum": 1165,
      "active": 1166,
      "tran": 1167,
      "parser": 1168,
      "distan": 1169,
      "ared": 1170,
      "abstr": 1171,
      "resol": 1172,
      "options": 1173,
      "mit": 1174,
      "tle": 1175,
      "starting": 1176,
      "tch": 1177,
      "tent": 1178,
      "short": 1179,
      "correct": 1180,
      "extension": 1181,
      "ptor": 1182,
      "necessary": 1183,
      "bound": 1184,
      "sible": 1185,
      "conveni": 1186,
      "strings": 1187,
      "defini": 1188,
      "thing": 1189,
      "permission": 1190,
      "sn": 1191,
      "atch": 1192,
      "resources": 1193,
      "struct": 1194,
      "their": 1195,
      "maxim": 1196,
      "dimen": 1197,
      "socket": 1198,
      "sol": 1199,
      "stored": 1200,
      "jo": 1201,
      "unk": 1202,
      "dif": 1203,
      "suc": 1204,
      "present": 1205,
      "selection": 1206,
      "appends": 1207,
      "distance": 1208,
      "ish": 1209,
      "binary": 1210,
      "finds": 1211,
      "certifi": 1212,
      "calls": 1213,
      "inputstream": 1214,
      "rop": 1215,
      "authen": 1216,
      "again": 1217,
      "retrie": 1218,
      "dimension": 1219,
      "tab": 1220,
      "abstract": 1221,
      "callback": 1222,
      "execute": 1223,
      "ics": 1224,
      "registered": 1225,
      "est": 1226,
      "must": 1227,
      "sco": 1228,
      "results": 1229,
      "prep": 1230,
      "div": 1231,
      "convenience": 1232,
      "factor": 1233,
      "needed": 1234,
      "rad": 1235,
      "my": 1236,
      "ei": 1237,
      "optional": 1238,
      "amp": 1239,
      "validate": 1240,
      "evalu": 1241,
      "definition": 1242,
      "extr": 1243,
      "ont": 1244,
      "throws": 1245,
      "constra": 1246,
      "static": 1247,
      "track": 1248,
      "adap": 1249,
      "serialization": 1250,
      "algorithm": 1251,
      "right": 1252,
      "width": 1253,
      "auth": 1254,
      "feedback": 1255,
      "bod": 1256,
      "compar": 1257,
      "ugh": 1258,
      "they": 1259,
      "variables": 1260,
      "utility": 1261,
      "high": 1262,
      "builds": 1263,
      "secon": 1264,
      "wait": 1265,
      "fy": 1266,
      "own": 1267,
      "serv": 1268,
      "save": 1269,
      "such": 1270,
      "sort": 1271,
      "mini": 1272,
      "left": 1273,
      "makes": 1274,
      "maximum": 1275,
      "describ": 1276,
      "representing": 1277,
      "channel": 1278,
      "components": 1279,
      "remote": 1280,
      "cast": 1281,
      "through": 1282,
      "cas": 1283,
      "attemp": 1284,
      "password": 1285,
      "clas": 1286,
      "mer": 1287,
      "descriptor": 1288,
      "gest": 1289,
      "processing": 1290,
      "instances": 1291,
      "namesp": 1292,
      "section": 1293,
      "ause": 1294,
      "ile": 1295,
      "ures": 1296,
      "imal": 1297,
      "clic": 1298,
      "vide": 1299,
      "schema": 1300,
      "edit": 1301,
      "complete": 1302,
      "body": 1303,
      "edge": 1304,
      "polic": 1305,
      "met": 1306,
      "priate": 1307,
      "web": 1308,
      "ground": 1309,
      "appropriate": 1310,
      "render": 1311,
      "closed": 1312,
      "may": 1313,
      "rule": 1314,
      "project": 1315,
      "report": 1316,
      "ced": 1317,
      "animation": 1318,
      "pret": 1319,
      "move": 1320,
      "inst": 1321,
      "direct": 1322,
      "cs": 1323,
      "sen": 1324,
      "assigned": 1325,
      "override": 1326,
      "yn": 1327,
      "ata": 1328,
      "both": 1329,
      "fragment": 1330,
      "sends": 1331,
      "allows": 1332,
      "click": 1333,
      "rid": 1334,
      "trig": 1335,
      "contained": 1336,
      "background": 1337,
      "car": 1338,
      "named": 1339,
      "children": 1340,
      "bl": 1341,
      "ode": 1342,
      "receive": 1343,
      "origin": 1344,
      "stores": 1345,
      "represents": 1346,
      "puts": 1347,
      "depend": 1348,
      "occur": 1349,
      "ested": 1350,
      "like": 1351,
      "gre": 1352,
      "initialized": 1353,
      "big": 1354,
      "install": 1355,
      "poly": 1356,
      "calling": 1357,
      "until": 1358,
      "ial": 1359,
      "replace": 1360,
      "mil": 1361,
      "feature": 1362,
      "enter": 1363,
      "lies": 1364,
      "visible": 1365,
      "loader": 1366,
      "step": 1367,
      "trace": 1368,
      "template": 1369,
      "hex": 1370,
      "vol": 1371,
      "identifier": 1372,
      "ving": 1373,
      "signature": 1374,
      "invalid": 1375,
      "sched": 1376,
      "wrapper": 1377,
      "policy": 1378,
      "select": 1379,
      "bec": 1380,
      "finish": 1381,
      "amo": 1382,
      "returned": 1383,
      "now": 1384,
      "job": 1385,
      "cell": 1386,
      "mouse": 1387,
      "invo": 1388,
      "success": 1389,
      "certificate": 1390,
      "uring": 1391,
      "db": 1392,
      "tom": 1393,
      "ensures": 1394,
      "against": 1395,
      "ured": 1396,
      "xy": 1397,
      "zone": 1398,
      "icon": 1399,
      "als": 1400,
      "full": 1401,
      "lang": 1402,
      "rot": 1403,
      "invokes": 1404,
      "rt": 1405,
      "erializ": 1406,
      "att": 1407,
      "peri": 1408,
      "synchron": 1409,
      "receiver": 1410,
      "lit": 1411,
      "bitmap": 1412,
      "less": 1413,
      "ules": 1414,
      "flow": 1415,
      "econ": 1416,
      "least": 1417,
      "every": 1418,
      "push": 1419,
      "ization": 1420,
      "axis": 1421,
      "priv": 1422,
      "ular": 1423,
      "sure": 1424,
      "equality": 1425,
      "minim": 1426,
      "namespace": 1427,
      "proto": 1428,
      "ak": 1429,
      "place": 1430,
      "lob": 1431,
      "gate": 1432,
      "uted": 1433,
      "multiple": 1434,
      "radi": 1435,
      "bits": 1436,
      "gram": 1437,
      "unds": 1438,
      "deserializ": 1439,
      "player": 1440,
      "patch": 1441,
      "flush": 1442,
      "verifi": 1443,
      "received": 1444,
      "public": 1445,
      "br": 1446,
      "insert": 1447,
      "executes": 1448,
      "distribution": 1449,
      "support": 1450,
      "ressed": 1451,
      "prior": 1452,
      "mutable": 1453,
      "adapter": 1454,
      "ume": 1455,
      "tostring": 1456,
      "chunk": 1457,
      "ick": 1458,
      "recor": 1459,
      "popul": 1460,
      "subscri": 1461,
      "height": 1462,
      "ash": 1463,
      "interval": 1464,
      "package": 1465,
      "sw": 1466,
      "cry": 1467,
      "cancel": 1468,
      "alloc": 1469,
      "assign": 1470,
      "coordinates": 1471,
      "authenti": 1472,
      "tec": 1473,
      "unt": 1474,
      "copies": 1475,
      "either": 1476,
      "del": 1477,
      "ition": 1478,
      "card": 1479,
      "sin": 1480,
      "apply": 1481,
      "loaded": 1482,
      "noti": 1483,
      "ns": 1484,
      "pac": 1485,
      "vm": 1486,
      "ality": 1487,
      "possible": 1488,
      "testing": 1489,
      "preferen": 1490,
      "tip": 1491,
      "area": 1492,
      "cursor": 1493,
      "creating": 1494,
      "paints": 1495,
      "wer": 1496,
      "declar": 1497,
      "visits": 1498,
      "fer": 1499,
      "interpret": 1500,
      "metad": 1501,
      "stamp": 1502,
      "matching": 1503,
      "primi": 1504,
      "transl": 1505,
      "escap": 1506,
      "ater": 1507,
      "leg": 1508,
      "eration": 1509,
      "including": 1510,
      "arrays": 1511,
      "mbol": 1512,
      "shap": 1513,
      "mary": 1514,
      "returning": 1515,
      "symbol": 1516,
      "geo": 1517,
      "verify": 1518,
      "logs": 1519,
      "day": 1520,
      "ized": 1521,
      "swi": 1522,
      "domain": 1523,
      "style": 1524,
      "eff": 1525,
      "ability": 1526,
      "validates": 1527,
      "cular": 1528,
      "segment": 1529,
      "gr": 1530,
      "connect": 1531,
      "expected": 1532,
      "compo": 1533,
      "requests": 1534,
      "constraint": 1535,
      "follow": 1536,
      "metadata": 1537,
      "rows": 1538,
      "super": 1539,
      "na": 1540,
      "resh": 1541,
      "aly": 1542,
      "metri": 1543,
      "ward": 1544,
      "skip": 1545,
      "acts": 1546,
      "apped": 1547,
      "amount": 1548,
      "interpreting": 1549,
      "raw": 1550,
      "adding": 1551,
      "sample": 1552,
      "drop": 1553,
      "reas": 1554,
      "datase": 1555,
      "ear": 1556,
      "org": 1557,
      "termin": 1558,
      "removed": 1559,
      "provides": 1560,
      "layer": 1561,
      "ival": 1562,
      "addition": 1563,
      "bund": 1564,
      "oid": 1565,
      "decimal": 1566,
      "primitive": 1567,
      "sm": 1568,
      "during": 1569,
      "fully": 1570,
      "authentication": 1571,
      "encodes": 1572,
      "rela": 1573,
      "proxy": 1574,
      "coordinate": 1575,
      "compare": 1576,
      "calculate": 1577,
      "shows": 1578,
      "ump": 1579,
      "analy": 1580,
      "snap": 1581,
      "compil": 1582,
      "numer": 1583,
      "assertion": 1584,
      "cluster": 1585,
      "lines": 1586,
      "operator": 1587,
      "rende": 1588,
      "border": 1589,
      "editor": 1590,
      "private": 1591,
      "asyn": 1592,
      "ie": 1593,
      "ways": 1594,
      "inside": 1595,
      "chain": 1596,
      "uid": 1597,
      "regi": 1598,
      "nown": 1599,
      "disk": 1600,
      "sorted": 1601,
      "equival": 1602,
      "lex": 1603,
      "rer": 1604,
      "rectangle": 1605,
      "relative": 1606,
      "inner": 1607,
      "pane": 1608,
      "draws": 1609,
      "ide": 1610,
      "urity": 1611,
      "registr": 1612,
      "execution": 1613,
      "configured": 1614,
      "safe": 1615,
      "bundle": 1616,
      "notify": 1617,
      "program": 1618,
      "via": 1619,
      "minimum": 1620,
      "dataset": 1621,
      "commit": 1622,
      "aving": 1623,
      "relation": 1624,
      "virt": 1625,
      "ision": 1626,
      "protocol": 1627,
      "html": 1628,
      "foc": 1629,
      "duration": 1630,
      "grid": 1631,
      "basic": 1632,
      "clean": 1633,
      "encode": 1634,
      "audi": 1635,
      "buf": 1636,
      "packet": 1637,
      "native": 1638,
      "structure": 1639,
      "ferent": 1640,
      "title": 1641,
      "prof": 1642,
      "module": 1643,
      "always": 1644,
      "here": 1645,
      "param": 1646,
      "whose": 1647,
      "tical": 1648,
      "decodes": 1649,
      "virtual": 1650,
      "spa": 1651,
      "enumeration": 1652,
      "actual": 1653,
      "binding": 1654,
      "bati": 1655,
      "ind": 1656,
      "accept": 1657,
      "intent": 1658,
      "ases": 1659,
      "particular": 1660,
      "period": 1661,
      "shape": 1662,
      "vent": 1663,
      "transi": 1664,
      "searches": 1665,
      "second": 1666,
      "since": 1667,
      "roid": 1668,
      "old": 1669,
      "security": 1670,
      "logging": 1671,
      "saves": 1672,
      "outputstream": 1673,
      "equivalent": 1674,
      "timestamp": 1675,
      "font": 1676,
      "encry": 1677,
      "lot": 1678,
      "dom": 1679,
      "folder": 1680,
      "neg": 1681,
      "notifies": 1682,
      "mediate": 1683,
      "cover": 1684,
      "mappings": 1685,
      "product": 1686,
      "shared": 1687,
      "columns": 1688,
      "board": 1689,
      "batis": 1690,
      "ternal": 1691,
      "snapsho": 1692,
      "real": 1693,
      "script": 1694,
      "different": 1695,
      "switch": 1696,
      "account": 1697,
      "cached": 1698,
      "declaration": 1699,
      "your": 1700,
      "era": 1701,
      "connected": 1702,
      "separator": 1703,
      "zo": 1704,
      "series": 1705,
      "don": 1706,
      "site": 1707,
      "uce": 1708,
      "note": 1709,
      "drag": 1710,
      "various": 1711,
      "describing": 1712,
      "join": 1713,
      "original": 1714,
      "volume": 1715,
      "records": 1716,
      "mybatis": 1717,
      "most": 1718,
      "attach": 1719,
      "reason": 1720,
      "external": 1721,
      "moves": 1722,
      "ensure": 1723,
      "asserts": 1724,
      "previously": 1725,
      "matched": 1726,
      "verifies": 1727,
      "normaliz": 1728,
      "dy": 1729,
      "roy": 1730,
      "servlet": 1731,
      "sent": 1732,
      "lish": 1733,
      "visitor": 1734,
      "ping": 1735,
      "ker": 1736,
      "split": 1737,
      "df": 1738,
      "skillname": 1739,
      "divid": 1740,
      "vo": 1741,
      "recurs": 1742,
      "destroy": 1743,
      "turn": 1744,
      "ented": 1745,
      "ech": 1746,
      "prob": 1747,
      "priority": 1748,
      "uch": 1749,
      "unch": 1750,
      "sist": 1751,
      "clone": 1752,
      "processes": 1753,
      "fills": 1754,
      "pts": 1755,
      "recursive": 1756,
      "gu": 1757,
      "ged": 1758,
      "formats": 1759,
      "completed": 1760,
      "scope": 1761,
      "whitespace": 1762,
      "ination": 1763,
      "deep": 1764,
      "numbers": 1765,
      "unique": 1766,
      "bi": 1767,
      "initialization": 1768,
      "millis": 1769,
      "equals": 1770,
      "scale": 1771,
      "glob": 1772,
      "warning": 1773,
      "tells": 1774,
      "pix": 1775,
      "because": 1776,
      "quo": 1777,
      "pending": 1778,
      "bounds": 1779,
      "release": 1780,
      "dr": 1781,
      "tup": 1782,
      "verse": 1783,
      "mail": 1784,
      "acing": 1785,
      "tre": 1786,
      "tal": 1787,
      "comment": 1788,
      "bot": 1789,
      "plan": 1790,
      "refresh": 1791,
      "posit": 1792,
      "additional": 1793,
      "dig": 1794,
      "pixel": 1795,
      "controll": 1796,
      "predic": 1797,
      "cr": 1798,
      "ude": 1799,
      "agg": 1800,
      "nothing": 1801,
      "beginning": 1802,
      "takes": 1803,
      "buffe": 1804,
      "ped": 1805,
      "rest": 1806,
      "while": 1807,
      "hashcode": 1808,
      "immediate": 1809,
      "focus": 1810,
      "execut": 1811,
      "forward": 1812,
      "ids": 1813,
      "started": 1814,
      "attempts": 1815,
      "destination": 1816,
      "hold": 1817,
      "download": 1818,
      "cam": 1819,
      "android": 1820,
      "creation": 1821,
      "center": 1822,
      "positive": 1823,
      "times": 1824,
      "ring": 1825,
      "reposit": 1826,
      "proble": 1827,
      "trigger": 1828,
      "ually": 1829,
      "operations": 1830,
      "jsonobject": 1831,
      "stops": 1832,
      "requi": 1833,
      "igno": 1834,
      "ename": 1835,
      "liter": 1836,
      "bus": 1837,
      "reading": 1838,
      "applies": 1839,
      "launch": 1840,
      "partition": 1841,
      "tokens": 1842,
      "implements": 1843,
      "modified": 1844,
      "instantiate": 1845,
      "regular": 1846,
      "executed": 1847,
      "tags": 1848,
      "ssl": 1849,
      "cannot": 1850,
      "prepare": 1851,
      "unsigned": 1852,
      "specify": 1853,
      "done": 1854,
      "allowed": 1855,
      "invoke": 1856,
      "common": 1857,
      "written": 1858,
      "media": 1859,
      "classi": 1860,
      "directly": 1861,
      "rout": 1862,
      "obtain": 1863,
      "refl": 1864,
      "replaces": 1865,
      "year": 1866,
      "aster": 1867,
      "identity": 1868,
      "negative": 1869,
      "audio": 1870,
      "ffi": 1871,
      "pur": 1872,
      "ends": 1873,
      "cir": 1874,
      "doesn": 1875,
      "renderer": 1876,
      "king": 1877,
      "retrieves": 1878,
      "camera": 1879,
      "appe": 1880,
      "counter": 1881,
      "detec": 1882,
      "pay": 1883,
      "langu": 1884,
      "persis": 1885,
      "engine": 1886,
      "requested": 1887,
      "viron": 1888,
      "provide": 1889,
      "rules": 1890,
      "init": 1891,
      "expand": 1892,
      "ones": 1893,
      "ample": 1894,
      "tile": 1895,
      "chart": 1896,
      "snapshot": 1897,
      "vices": 1898,
      "opens": 1899,
      "profile": 1900,
      "bre": 1901,
      "environ": 1902,
      "overrid": 1903,
      "compati": 1904,
      "iver": 1905,
      "effect": 1906,
      "dynam": 1907,
      "sl": 1908,
      "example": 1909,
      "tax": 1910,
      "loading": 1911,
      "timeout": 1912,
      "retrieve": 1913,
      "cho": 1914,
      "ype": 1915,
      "hist": 1916,
      "updated": 1917,
      "world": 1918,
      "statist": 1919,
      "bility": 1920,
      "decode": 1921,
      "tically": 1922,
      "vertex": 1923,
      "bro": 1924,
      "round": 1925,
      "direction": 1926,
      "normal": 1927,
      "author": 1928,
      "ong": 1929,
      "ceed": 1930,
      "lement": 1931,
      "occurren": 1932,
      "limit": 1933,
      "classifi": 1934,
      "what": 1935,
      "fieldid": 1936,
      "light": 1937,
      "actions": 1938,
      "monitor": 1939,
      "ud": 1940,
      "mpl": 1941,
      "repository": 1942,
      "generic": 1943,
      "millisecon": 1944,
      "global": 1945,
      "ado": 1946,
      "paint": 1947,
      "immutable": 1948,
      "failed": 1949,
      "greater": 1950,
      "texts": 1951,
      "writing": 1952,
      "appear": 1953,
      "parsing": 1954,
      "blocks": 1955,
      "holder": 1956,
      "zip": 1957,
      "take": 1958,
      "maps": 1959,
      "how": 1960,
      "references": 1961,
      "decla": 1962,
      "foo": 1963,
      "licit": 1964,
      "primary": 1965,
      "environment": 1966,
      "indicate": 1967,
      "increment": 1968,
      "squ": 1969,
      "fire": 1970,
      "flags": 1971,
      "included": 1972,
      "readable": 1973,
      "batch": 1974,
      "configure": 1975,
      "cent": 1976,
      "gers": 1977,
      "once": 1978,
      "formatted": 1979,
      "por": 1980,
      "cook": 1981,
      "drawing": 1982,
      "also": 1983,
      "fetch": 1984,
      "pher": 1985,
      "indi": 1986,
      "words": 1987,
      "details": 1988,
      "texception": 1989,
      "atform": 1990,
      "supports": 1991,
      "import": 1992,
      "simul": 1993,
      "processor": 1994,
      "total": 1995,
      "tries": 1996,
      "language": 1997,
      "platform": 1998,
      "controller": 1999,
      "problem": 2000,
      "ency": 2001,
      "deriv": 2002,
      "delegate": 2003,
      "linked": 2004,
      "comparator": 2005,
      "aro": 2006,
      "locale": 2007,
      "threads": 2008,
      "aggreg": 2009,
      "prin": 2010,
      "marks": 2011,
      "bottom": 2012,
      "mask": 2013,
      "beha": 2014,
      "views": 2015,
      "lower": 2016,
      "loy": 2017,
      "sync": 2018,
      "remain": 2019,
      "utf": 2020,
      "iteration": 2021,
      "sal": 2022,
      "displayed": 2023,
      "buffered": 2024,
      "graphic": 2025,
      "graphics": 2026,
      "related": 2027,
      "overridden": 2028,
      "represented": 2029,
      "legal": 2030,
      "mach": 2031,
      "sv": 2032,
      "role": 2033,
      "produce": 2034,
      "coming": 2035,
      "jsonarray": 2036,
      "asynchron": 2037,
      "around": 2038,
      "dump": 2039,
      "dispatch": 2040,
      "ene": 2041,
      "cipher": 2042,
      "history": 2043,
      "asynchronous": 2044,
      "diction": 2045,
      "endar": 2046,
      "tempor": 2047,
      "members": 2048,
      "consis": 2049,
      "functionality": 2050,
      "closing": 2051,
      "predicate": 2052,
      "sli": 2053,
      "displays": 2054,
      "certain": 2055,
      "behavi": 2056,
      "visit": 2057,
      "categ": 2058,
      "schedul": 2059,
      "jar": 2060,
      "ship": 2061,
      "zoom": 2062,
      "shut": 2063,
      "libr": 2064,
      "pointer": 2065,
      "modify": 2066,
      "consum": 2067,
      "break": 2068,
      "groups": 2069,
      "gon": 2070,
      "querybuilder": 2071,
      "timer": 2072,
      "ness": 2073,
      "ctor": 2074,
      "known": 2075,
      "tuple": 2076,
      "enable": 2077,
      "ural": 2078,
      "ffici": 2079,
      "gy": 2080,
      "igh": 2081,
      "deli": 2082,
      "book": 2083,
      "organ": 2084,
      "special": 2085,
      "navi": 2086,
      "touch": 2087,
      "itable": 2088,
      "fixed": 2089,
      "mits": 2090,
      "ali": 2091,
      "alp": 2092,
      "specification": 2093,
      "elf": 2094,
      "linear": 2095,
      "final": 2096,
      "transfer": 2097,
      "optim": 2098,
      "sur": 2099,
      "spar": 2100,
      "exact": 2101,
      "izer": 2102,
      "subject": 2103,
      "performed": 2104,
      "abstractquerybuilder": 2105,
      "parsed": 2106,
      "io": 2107,
      "hook": 2108,
      "lip": 2109,
      "umes": 2110,
      "marker": 2111,
      "finished": 2112,
      "sorts": 2113,
      "datat": 2114,
      "wraps": 2115,
      "polygon": 2116,
      "alpha": 2117,
      "popup": 2118,
      "deploy": 2119,
      "numeric": 2120,
      "having": 2121,
      "meas": 2122,
      "keep": 2123,
      "iff": 2124,
      "debugging": 2125,
      "repe": 2126,
      "itself": 2127,
      "loop": 2128,
      "filename": 2129,
      "ub": 2130,
      "runtime": 2131,
      "reach": 2132,
      "meta": 2133,
      "depending": 2134,
      "were": 2135,
      "users": 2136,
      "extended": 2137,
      "rup": 2138,
      "below": 2139,
      "metric": 2140,
      "machine": 2141,
      "category": 2142,
      "dn": 2143,
      "lt": 2144,
      "orde": 2145,
      "edges": 2146,
      "dynamic": 2147,
      "those": 2148,
      "entire": 2149,
      "outs": 2150,
      "checking": 2151,
      "handled": 2152,
      "rotation": 2153,
      "dup": 2154,
      "qual": 2155,
      "headers": 2156,
      "automa": 2157,
      "gation": 2158,
      "transition": 2159,
      "onto": 2160,
      "delay": 2161,
      "specifies": 2162,
      "operand": 2163,
      "bind": 2164,
      "want": 2165,
      "probability": 2166,
      "suitable": 2167,
      "filters": 2168,
      "longer": 2169,
      "stric": 2170,
      "lists": 2171,
      "gt": 2172,
      "ler": 2173,
      "uuid": 2174,
      "contin": 2175,
      "force": 2176,
      "export": 2177,
      "would": 2178,
      "missing": 2179,
      "literal": 2180,
      "mean": 2181,
      "denti": 2182,
      "mbean": 2183,
      "heap": 2184,
      "indicating": 2185,
      "managed": 2186,
      "she": 2187,
      "inclus": 2188,
      "preferences": 2189,
      "ws": 2190,
      "needs": 2191,
      "buc": 2192,
      "rexception": 2193,
      "absol": 2194,
      "lookup": 2195,
      "milliseconds": 2196,
      "pal": 2197,
      "completion": 2198,
      "ize": 2199,
      "aved": 2200,
      "ordered": 2201,
      "absolute": 2202,
      "endpoint": 2203,
      "reply": 2204,
      "jav": 2205,
      "logger": 2206,
      "pairs": 2207,
      "immediately": 2208,
      "ks": 2209,
      "subtree": 2210,
      "merge": 2211,
      "validation": 2212,
      "interpo": 2213,
      "wards": 2214,
      "incoming": 2215,
      "login": 2216,
      "calendar": 2217,
      "ross": 2218,
      "usage": 2219,
      "digest": 2220,
      "extract": 2221,
      "hashmap": 2222,
      "dimensions": 2223,
      "ware": 2224,
      "compressed": 2225,
      "going": 2226,
      "free": 2227,
      "even": 2228,
      "handling": 2229,
      "impl": 2230,
      "tence": 2231,
      "errors": 2232,
      "marsh": 2233,
      "include": 2234,
      "waiting": 2235,
      "statistics": 2236,
      "align": 2237,
      "clause": 2238,
      "ever": 2239,
      "nested": 2240,
      "dian": 2241,
      "connections": 2242,
      "caster": 2243,
      "video": 2244,
      "yet": 2245,
      "mented": 2246,
      "adv": 2247,
      "wrapped": 2248,
      "cending": 2249,
      "cookie": 2250,
      "cp": 2251,
      "poses": 2252,
      "mac": 2253,
      "ario": 2254,
      "jax": 2255,
      "fit": 2256,
      "acqu": 2257,
      "agent": 2258,
      "optionally": 2259,
      "tasks": 2260,
      "general": 2261,
      "logy": 2262,
      "pted": 2263,
      "month": 2264,
      "ite": 2265,
      "attempt": 2266,
      "library": 2267,
      "subscription": 2268,
      "well": 2269,
      "imat": 2270,
      "queries": 2271,
      "fut": 2272,
      "skillcaster": 2273,
      "score": 2274,
      "spaces": 2275,
      "counts": 2276,
      "hor": 2277,
      "posed": 2278,
      "strate": 2279,
      "upper": 2280,
      "drawable": 2281,
      "ldap": 2282,
      "saved": 2283,
      "endian": 2284,
      "annotations": 2285,
      "sensi": 2286,
      "proj": 2287,
      "transformation": 2288,
      "ice": 2289,
      "ili": 2290,
      "sr": 2291,
      "inf": 2292,
      "mes": 2293,
      "alle": 2294,
      "dt": 2295,
      "reco": 2296,
      "exceptions": 2297,
      "cept": 2298,
      "syntax": 2299,
      "recursively": 2300,
      "functions": 2301,
      "seconds": 2302,
      "replacing": 2303,
      "ct": 2304,
      "cat": 2305,
      "restore": 2306,
      "throwing": 2307,
      "stead": 2308,
      "alias": 2309,
      "removing": 2310,
      "spath": 2311,
      "todo": 2312,
      "wild": 2313,
      "thrown": 2314,
      "gg": 2315,
      "hal": 2316,
      "ison": 2317,
      "subtr": 2318,
      "releases": 2319,
      "combin": 2320,
      "bitr": 2321,
      "instructions": 2322,
      "bigdecimal": 2323,
      "qualifi": 2324,
      "hid": 2325,
      "ically": 2326,
      "preference": 2327,
      "power": 2328,
      "ily": 2329,
      "hier": 2330,
      "tables": 2331,
      "var": 2332,
      "spe": 2333,
      "peer": 2334,
      "temporary": 2335,
      "arbitr": 2336,
      "instead": 2337,
      "asci": 2338,
      "abo": 2339,
      "curren": 2340,
      "declared": 2341,
      "chars": 2342,
      "avoid": 2343,
      "interpol": 2344,
      "three": 2345,
      "sole": 2346,
      "classpath": 2347,
      "compatible": 2348,
      "bly": 2349,
      "gments": 2350,
      "rm": 2351,
      "deleted": 2352,
      "links": 2353,
      "verti": 2354,
      "charset": 2355,
      "vectors": 2356,
      "registry": 2357,
      "span": 2358,
      "following": 2359,
      "pixels": 2360,
      "owner": 2361,
      "params": 2362,
      "ascii": 2363,
      "fc": 2364,
      "ource": 2365,
      "contexts": 2366,
      "failure": 2367,
      "increments": 2368,
      "indices": 2369,
      "inclusive": 2370,
      "observ": 2371,
      "streams": 2372,
      "assert": 2373,
      "flushes": 2374,
      "cum": 2375,
      "ture": 2376,
      "credenti": 2377,
      "ordering": 2378,
      "prec": 2379,
      "transp": 2380,
      "above": 2381,
      "longs": 2382,
      "arbitrary": 2383,
      "ps": 2384,
      "small": 2385,
      "derived": 2386,
      "lat": 2387,
      "throwable": 2388,
      "publish": 2389,
      "ignor": 2390,
      "ginte": 2391,
      "hierarch": 2392,
      "atures": 2393,
      "simp": 2394,
      "explicit": 2395,
      "effici": 2396,
      "too": 2397,
      "interrup": 2398,
      "bles": 2399,
      "extracts": 2400,
      "clicked": 2401,
      "her": 2402,
      "dictionary": 2403,
      "datatype": 2404,
      "automatically": 2405,
      "shown": 2406,
      "aced": 2407,
      "whole": 2408,
      "possi": 2409,
      "resolve": 2410,
      "reports": 2411,
      "logical": 2412,
      "labels": 2413,
      "scheme": 2414,
      "behavior": 2415,
      "strategy": 2416,
      "ck": 2417,
      "mm": 2418,
      "conversion": 2419,
      "future": 2420,
      "horiz": 2421,
      "xx": 2422,
      "unding": 2423,
      "ligh": 2424,
      "atom": 2425,
      "comparison": 2426,
      "setup": 2427,
      "else": 2428,
      "distributed": 2429,
      "togg": 2430,
      "waits": 2431,
      "instantiated": 2432,
      "later": 2433,
      "correctly": 2434,
      "biginte": 2435,
      "horizont": 2436,
      "adjust": 2437,
      "dexception": 2438,
      "classifier": 2439,
      "wal": 2440,
      "issu": 2441,
      "prime": 2442,
      "cards": 2443,
      "routine": 2444,
      "route": 2445,
      "servers": 2446,
      "modifier": 2447,
      "dir": 2448,
      "sha": 2449,
      "design": 2450,
      "many": 2451,
      "sor": 2452,
      "proced": 2453,
      "queu": 2454,
      "ining": 2455,
      "disable": 2456,
      "etc": 2457,
      "traver": 2458,
      "live": 2459,
      "comb": 2460,
      "scrolling": 2461,
      "skilltarget": 2462,
      "separated": 2463,
      "echan": 2464,
      "princi": 2465,
      "svg": 2466,
      "fr": 2467,
      "stit": 2468,
      "complex": 2469,
      "states": 2470,
      "processed": 2471,
      "serialized": 2472,
      "permissions": 2473,
      "acces": 2474,
      "omp": 2475,
      "email": 2476,
      "seed": 2477,
      "samp": 2478,
      "clip": 2479,
      "evaluate": 2480,
      "dependent": 2481,
      "biginteger": 2482,
      "hum": 2483,
      "know": 2484,
      "exclus": 2485,
      "duplic": 2486,
      "eas": 2487,
      "nable": 2488,
      "organization": 2489,
      "ascending": 2490,
      "connects": 2491,
      "occurrence": 2492,
      "shutdown": 2493,
      "pc": 2494,
      "mage": 2495,
      "self": 2496,
      "paths": 2497,
      "serialize": 2498,
      "identified": 2499,
      "enables": 2500,
      "portion": 2501,
      "possibly": 2502,
      "ba": 2503,
      "game": 2504,
      "emb": 2505,
      "along": 2506,
      "core": 2507,
      "services": 2508,
      "hierarchy": 2509,
      "newly": 2510,
      "consist": 2511,
      "dist": 2512,
      "digit": 2513,
      "yy": 2514,
      "pushes": 2515,
      "pressed": 2516,
      "pick": 2517,
      "could": 2518,
      "ia": 2519,
      "windows": 2520,
      "swing": 2521,
      "cumul": 2522,
      "lead": 2523,
      "nomi": 2524,
      "brow": 2525,
      "dd": 2526,
      "ied": 2527,
      "units": 2528,
      "assum": 2529,
      "director": 2530,
      "preview": 2531,
      "embed": 2532,
      "aver": 2533,
      "sity": 2534,
      "rever": 2535,
      "made": 2536,
      "defines": 2537,
      "subclasses": 2538,
      "implemented": 2539,
      "fron": 2540,
      "polynomi": 2541,
      "grammar": 2542,
      "allocated": 2543,
      "bucket": 2544,
      "entation": 2545,
      "shif": 2546,
      "decre": 2547,
      "fast": 2548,
      "goog": 2549,
      "spinner": 2550,
      "occurs": 2551,
      "cand": 2552,
      "phas": 2553,
      "tit": 2554,
      "weight": 2555,
      "circle": 2556,
      "navigation": 2557,
      "due": 2558,
      "union": 2559,
      "ough": 2560,
      "composite": 2561,
      "applic": 2562,
      "defaults": 2563,
      "mime": 2564,
      "constraints": 2565,
      "sd": 2566,
      "extra": 2567,
      "validator": 2568,
      "remaining": 2569,
      "confirm": 2570,
      "estim": 2571,
      "human": 2572,
      "arti": 2573,
      "sending": 2574,
      "hide": 2575,
      "fig": 2576,
      "cel": 2577,
      "appen": 2578,
      "texture": 2579,
      "bytebuffer": 2580,
      "notified": 2581,
      "animat": 2582,
      "drawer": 2583,
      "principal": 2584,
      "applicable": 2585,
      "ga": 2586,
      "len": 2587,
      "iso": 2588,
      "statements": 2589,
      "csv": 2590,
      "google": 2591,
      "pdf": 2592,
      "illegal": 2593,
      "signal": 2594,
      "selector": 2595,
      "positions": 2596,
      "doubles": 2597,
      "scalar": 2598,
      "schedule": 2599,
      "mapped": 2600,
      "large": 2601,
      "fails": 2602,
      "driver": 2603,
      "lea": 2604,
      "chat": 2605,
      "lain": 2606,
      "serializes": 2607,
      "scanner": 2608,
      "invocation": 2609,
      "advan": 2610,
      "acqui": 2611,
      "comput": 2612,
      "criter": 2613,
      "ls": 2614,
      "individ": 2615,
      "canon": 2616,
      "measure": 2617,
      "serial": 2618,
      "bt": 2619,
      "bran": 2620,
      "invol": 2621,
      "translation": 2622,
      "eli": 2623,
      "quan": 2624,
      "require": 2625,
      "emit": 2626,
      "console": 2627,
      "rendering": 2628,
      "paren": 2629,
      "branch": 2630,
      "bad": 2631,
      "metry": 2632,
      "properly": 2633,
      "wrapping": 2634,
      "happen": 2635,
      "except": 2636,
      "selects": 2637,
      "authentic": 2638,
      "escape": 2639,
      "intersection": 2640,
      "ek": 2641,
      "fs": 2642,
      "plot": 2643,
      "restric": 2644,
      "comma": 2645,
      "desired": 2646,
      "disabled": 2647,
      "built": 2648,
      "lexical": 2649,
      "polynomial": 2650,
      "pose": 2651,
      "generation": 2652,
      "disco": 2653,
      "formatter": 2654,
      "buttons": 2655,
      "evaluates": 2656,
      "specifying": 2657,
      "gran": 2658,
      "rate": 2659,
      "aler": 2660,
      "inters": 2661,
      "entities": 2662,
      "contact": 2663,
      "overrides": 2664,
      "transforms": 2665,
      "horizontal": 2666,
      "allocation": 2667,
      "actually": 2668,
      "ignoring": 2669,
      "thres": 2670,
      "uninitialized": 2671,
      "releas": 2672,
      "geometry": 2673,
      "entered": 2674,
      "kets": 2675,
      "checked": 2676,
      "integers": 2677,
      "individual": 2678,
      "nat": 2679,
      "laz": 2680,
      "suite": 2681,
      "expressions": 2682,
      "hy": 2683,
      "concate": 2684,
      "excl": 2685,
      "dbc": 2686,
      "ently": 2687,
      "upload": 2688,
      "runnable": 2689,
      "useful": 2690,
      "binds": 2691,
      "exclusive": 2692,
      "front": 2693,
      "none": 2694,
      "rfc": 2695,
      "mething": 2696,
      "datas": 2697,
      "something": 2698,
      "colors": 2699,
      "modification": 2700,
      "gar": 2701,
      "jdbc": 2702,
      "uff": 2703,
      "decor": 2704,
      "populate": 2705,
      "mid": 2706,
      "concaten": 2707,
      "images": 2708,
      "successfully": 2709,
      "continu": 2710,
      "sam": 2711,
      "umb": 2712,
      "intern": 2713,
      "weigh": 2714,
      "terms": 2715,
      "swap": 2716,
      "procedure": 2717,
      "gra": 2718,
      "iness": 2719,
      "exit": 2720,
      "caller": 2721,
      "analysis": 2722,
      "sensitive": 2723,
      "candid": 2724,
      "widget": 2725,
      "watch": 2726,
      "suf": 2727,
      "notifications": 2728,
      "executor": 2729,
      "xpath": 2730,
      "decry": 2731,
      "blocking": 2732,
      "handlers": 2733,
      "blue": 2734,
      "credentials": 2735,
      "pho": 2736,
      "never": 2737,
      "backup": 2738,
      "critical": 2739,
      "mited": 2740,
      "highligh": 2741,
      "synchronous": 2742,
      "vertices": 2743,
      "directories": 2744,
      "hard": 2745,
      "xp": 2746,
      "dimensional": 2747,
      "cases": 2748,
      "radius": 2749,
      "ank": 2750,
      "objec": 2751,
      "username": 2752,
      "converter": 2753,
      "cancels": 2754,
      "these": 2755,
      "inform": 2756,
      "umen": 2757,
      "buffers": 2758,
      "cleanup": 2759,
      "sparse": 2760,
      "suffix": 2761,
      "exif": 2762,
      "define": 2763,
      "subset": 2764,
      "recy": 2765,
      "density": 2766,
      "requires": 2767,
      "consisten": 2768,
      "simil": 2769,
      "alized": 2770,
      "hour": 2771,
      "interest": 2772,
      "modifiers": 2773,
      "phone": 2774,
      "unicode": 2775,
      "described": 2776,
      "conf": 2777,
      "documents": 2778,
      "reflection": 2779,
      "cut": 2780,
      "parts": 2781,
      "ators": 2782,
      "sequen": 2783,
      "delta": 2784,
      "reverse": 2785,
      "ecimal": 2786,
      "art": 2787,
      "sensor": 2788,
      "successful": 2789,
      "skips": 2790,
      "square": 2791,
      "samples": 2792,
      "uth": 2793,
      "xim": 2794,
      "asn": 2795,
      "parcel": 2796,
      "similar": 2797,
      "prevent": 2798,
      "logic": 2799,
      "includes": 2800,
      "outside": 2801,
      "consistency": 2802,
      "fre": 2803,
      "ome": 2804,
      "fires": 2805,
      "sax": 2806,
      "tivity": 2807,
      "looks": 2808,
      "natural": 2809,
      "gb": 2810,
      "mechan": 2811,
      "initialis": 2812,
      "decoding": 2813,
      "whenever": 2814,
      "initialise": 2815,
      "broad": 2816,
      "exactly": 2817,
      "plain": 2818,
      "quick": 2819,
      "identify": 2820,
      "stats": 2821,
      "phase": 2822,
      "photo": 2823,
      "slot": 2824,
      "conside": 2825,
      "initially": 2826,
      "assignment": 2827,
      "ignore": 2828,
      "average": 2829,
      "nan": 2830,
      "unknown": 2831,
      "deserialization": 2832,
      "surface": 2833,
      "considered": 2834,
      "gl": 2835,
      "jvm": 2836,
      "replication": 2837,
      "workflow": 2838,
      "topic": 2839,
      "ru": 2840,
      "shar": 2841,
      "features": 2842,
      "performance": 2843,
      "gc": 2844,
      "ference": 2845,
      "marked": 2846,
      "allocate": 2847,
      "sul": 2848,
      "exemp": 2849,
      "tenant": 2850,
      "matcher": 2851,
      "filled": 2852,
      "renders": 2853,
      "business": 2854,
      "clock": 2855,
      "pull": 2856,
      "thumb": 2857,
      "segments": 2858,
      "dot": 2859,
      "tions": 2860,
      "lier": 2861,
      "vertical": 2862,
      "aud": 2863,
      "purposes": 2864,
      "bed": 2865,
      "ling": 2866,
      "enters": 2867,
      "retry": 2868,
      "itude": 2869,
      "applied": 2870,
      "commands": 2871,
      "ilities": 2872,
      "mechanis": 2873,
      "persist": 2874,
      "percent": 2875,
      "manage": 2876,
      "uniform": 2877,
      "ros": 2878,
      "works": 2879,
      "help": 2880,
      "accepts": 2881,
      "cancell": 2882,
      "installed": 2883,
      "updat": 2884,
      "subclass": 2885,
      "reached": 2886,
      "cert": 2887,
      "browser": 2888,
      "community": 2889,
      "refer": 2890,
      "synchronized": 2891,
      "involving": 2892,
      "det": 2893,
      "summary": 2894,
      "scanning": 2895,
      "attached": 2896,
      "fraction": 2897,
      "tection": 2898,
      "scheduler": 2899,
      "threshold": 2900,
      "degre": 2901,
      "best": 2902,
      "computed": 2903,
      "guar": 2904,
      "digits": 2905,
      "half": 2906,
      "qualified": 2907,
      "embedded": 2908,
      "degrees": 2909,
      "ants": 2910,
      "trail": 2911,
      "prepares": 2912,
      "deserialize": 2913,
      "mate": 2914,
      "los": 2915,
      "ming": 2916,
      "raster": 2917,
      "velo": 2918,
      "translates": 2919,
      "compilation": 2920,
      "assuming": 2921,
      "garb": 2922,
      "cates": 2923,
      "inted": 2924,
      "tear": 2925,
      "drops": 2926,
      "elimin": 2927,
      "materi": 2928,
      "garbage": 2929,
      "dp": 2930,
      "lif": 2931,
      "inten": 2932,
      "supposed": 2933,
      "resulting": 2934,
      "workspace": 2935,
      "solution": 2936,
      "metrics": 2937,
      "obtains": 2938,
      "currency": 2939,
      "fact": 2940,
      "datetime": 2941,
      "styles": 2942,
      "relationship": 2943,
      "configures": 2944,
      "deleg": 2945,
      "migr": 2946,
      "fired": 2947,
      "constructed": 2948,
      "frames": 2949,
      "inserted": 2950,
      "solr": 2951,
      "md": 2952,
      "enough": 2953,
      "disables": 2954,
      "executing": 2955,
      "toggle": 2956,
      "cf": 2957,
      "tio": 2958,
      "leaf": 2959,
      "adecimal": 2960,
      "upon": 2961,
      "altern": 2962,
      "cript": 2963,
      "indexes": 2964,
      "angles": 2965,
      "hexadecimal": 2966,
      "little": 2967,
      "projection": 2968,
      "fall": 2969,
      "ante": 2970,
      "tis": 2971,
      "means": 2972,
      "person": 2973,
      "replacement": 2974,
      "payment": 2975,
      "sequences": 2976,
      "exemplar": 2977,
      "visibility": 2978,
      "persistent": 2979,
      "math": 2980,
      "compile": 2981,
      "decision": 2982,
      "begins": 2983,
      "ystem": 2984,
      "mock": 2985,
      "divide": 2986,
      "authorization": 2987,
      "inline": 2988,
      "tenti": 2989,
      "reduc": 2990,
      "charsequence": 2991,
      "recycl": 2992,
      "fri": 2993,
      "undo": 2994,
      "places": 2995,
      "completely": 2996,
      "encryption": 2997,
      "src": 2998,
      "transport": 2999,
      "emits": 3000,
      "inher": 3001,
      "opened": 3002,
      "detach": 3003,
      "backend": 3004,
      "decoded": 3005,
      "interpre": 3006,
      "closure": 3007,
      "approxim": 3008,
      "evaluation": 3009,
      "registration": 3010,
      "aff": 3011,
      "brid": 3012,
      "protec": 3013,
      "scaling": 3014,
      "resolves": 3015,
      "everything": 3016,
      "broadcast": 3017,
      "ng": 3018,
      "wt": 3019,
      "forces": 3020,
      "spring": 3021,
      "experi": 3022,
      "alert": 3023,
      "css": 3024,
      "press": 3025,
      "potenti": 3026,
      "tokenizer": 3027,
      "guarante": 3028,
      "frequ": 3029,
      "abilities": 3030,
      "sizes": 3031,
      "multiply": 3032,
      "ignored": 3033,
      "updating": 3034,
      "mx": 3035,
      "miter": 3036,
      "master": 3037,
      "pse": 3038,
      "share": 3039,
      "iterable": 3040,
      "boundary": 3041,
      "ferred": 3042,
      "iss": 3043,
      "una": 3044,
      "plus": 3045,
      "addresses": 3046,
      "annot": 3047,
      "ratio": 3048,
      "cies": 3049,
      "passes": 3050,
      "caches": 3051,
      "filtering": 3052,
      "dependency": 3053,
      "titude": 3054,
      "qnames": 3055,
      "isn": 3056,
      "seman": 3057,
      "vered": 3058,
      "might": 3059,
      "secure": 3060,
      "committed": 3061,
      "cad": 3062,
      "crop": 3063,
      "cleans": 3064,
      "traversal": 3065,
      "experiment": 3066,
      "ony": 3067,
      "blob": 3068,
      "cost": 3069,
      "ni": 3070,
      "encap": 3071,
      "encoun": 3072,
      "normalized": 3073,
      "canonical": 3074,
      "catch": 3075,
      "rege": 3076,
      "room": 3077,
      "trust": 3078,
      "receives": 3079,
      "encapsul": 3080,
      "arc": 3081,
      "asp": 3082,
      "faces": 3083,
      "radians": 3084,
      "animator": 3085,
      "hit": 3086,
      "shard": 3087,
      "cloud": 3088,
      "depth": 3089,
      "scen": 3090,
      "repeated": 3091,
      "topo": 3092,
      "clients": 3093,
      "steps": 3094,
      "analyzer": 3095,
      "slash": 3096,
      "designated": 3097,
      "internally": 3098,
      "stage": 3099,
      "locations": 3100,
      "showing": 3101,
      "compiler": 3102,
      "formed": 3103,
      "locator": 3104,
      "comments": 3105,
      "maintain": 3106,
      "expon": 3107,
      "substring": 3108,
      "indicated": 3109,
      "ato": 3110,
      "dyn": 3111,
      "diag": 3112,
      "datagram": 3113,
      "building": 3114,
      "drawn": 3115,
      "resolved": 3116,
      "extensions": 3117,
      "discovery": 3118,
      "candidate": 3119,
      "keyboard": 3120,
      "translate": 3121,
      "pipe": 3122,
      "installs": 3123,
      "cross": 3124,
      "eper": 3125,
      "coeffici": 3126,
      "chor": 3127,
      "unless": 3128,
      "ended": 3129,
      "indexed": 3130,
      "black": 3131,
      "semantic": 3132,
      "atal": 3133,
      "deque": 3134,
      "contr": 3135,
      "getter": 3136,
      "indicator": 3137,
      "copying": 3138,
      "population": 3139,
      "javas": 3140,
      "simply": 3141,
      "inverse": 3142,
      "expr": 3143,
      "singleton": 3144,
      "extrac": 3145,
      "occurred": 3146,
      "volumes": 3147,
      "duplicate": 3148,
      "dynany": 3149,
      "air": 3150,
      "yes": 3151,
      "taken": 3152,
      "satis": 3153,
      "secret": 3154,
      "wildcard": 3155,
      "gi": 3156,
      "tt": 3157,
      "cla": 3158,
      "quad": 3159,
      "getinstance": 3160,
      "estab": 3161,
      "distin": 3162,
      "kind": 3163,
      "padding": 3164,
      "sever": 3165,
      "neare": 3166,
      "msg": 3167,
      "issue": 3168,
      "across": 3169,
      "consi": 3170,
      "crete": 3171,
      "assigns": 3172,
      "simulation": 3173,
      "deployment": 3174,
      "thash": 3175,
      "gered": 3176,
      "feel": 3177,
      "visual": 3178,
      "occu": 3179,
      "merges": 3180,
      "nearest": 3181,
      "pad": 3182,
      "toast": 3183,
      "izes": 3184,
      "arraylist": 3185,
      "combo": 3186,
      "classloader": 3187,
      "ipv": 3188,
      "minor": 3189,
      "catalog": 3190,
      "leave": 3191,
      "datasource": 3192,
      "dc": 3193,
      "ader": 3194,
      "admin": 3195,
      "usted": 3196,
      "answer": 3197,
      "filtered": 3198,
      "args": 3199,
      "deserializes": 3200,
      "recording": 3201,
      "criteria": 3202,
      "week": 3203,
      "alization": 3204,
      "produces": 3205,
      "retriev": 3206,
      "consistent": 3207,
      "consider": 3208,
      "mal": 3209,
      "trip": 3210,
      "storing": 3211,
      "triggered": 3212,
      "encrypted": 3213,
      "choo": 3214,
      "exclu": 3215,
      "pk": 3216,
      "thand": 3217,
      "inj": 3218,
      "anchor": 3219,
      "rather": 3220,
      "variance": 3221,
      "conditions": 3222,
      "marshall": 3223,
      "distinct": 3224,
      "fatal": 3225,
      "oft": 3226,
      "sim": 3227,
      "observer": 3228,
      "moving": 3229,
      "rename": 3230,
      "preferred": 3231,
      "backed": 3232,
      "causes": 3233,
      "associates": 3234,
      "identical": 3235,
      "prepared": 3236,
      "telement": 3237,
      "spli": 3238,
      "moved": 3239,
      "instant": 3240,
      "peg": 3241,
      "relev": 3242,
      "superclass": 3243,
      "terminal": 3244,
      "plane": 3245,
      "keeper": 3246,
      "bytecode": 3247,
      "substit": 3248,
      "collected": 3249,
      "notifier": 3250,
      "multiplies": 3251,
      "certificates": 3252,
      "destroyed": 3253,
      "restores": 3254,
      "getting": 3255,
      "mapper": 3256,
      "submit": 3257,
      "collector": 3258,
      "working": 3259,
      "capture": 3260,
      "printable": 3261,
      "attack": 3262,
      "realm": 3263,
      "hidden": 3264,
      "consisting": 3265,
      "computation": 3266,
      "band": 3267,
      "sus": 3268,
      "holds": 3269,
      "separate": 3270,
      "worker": 3271,
      "reasons": 3272,
      "reser": 3273,
      "poll": 3274,
      "outputs": 3275,
      "printer": 3276,
      "iterates": 3277,
      "orientation": 3278,
      "corresponds": 3279,
      "partial": 3280,
      "eigen": 3281,
      "deliver": 3282,
      "mir": 3283,
      "exceed": 3284,
      "mous": 3285,
      "wheel": 3286,
      "typeref": 3287,
      "desc": 3288,
      "aries": 3289,
      "changelistener": 3290,
      "cells": 3291,
      "une": 3292,
      "belongs": 3293,
      "decomp": 3294,
      "connector": 3295,
      "framebody": 3296,
      "definitions": 3297,
      "consumer": 3298,
      "hardware": 3299,
      "thumbna": 3300,
      "las": 3301,
      "ective": 3302,
      "motion": 3303,
      "referenced": 3304,
      "scales": 3305,
      "delimiter": 3306,
      "hyper": 3307,
      "flip": 3308,
      "jpeg": 3309,
      "ense": 3310,
      "encies": 3311,
      "stogram": 3312,
      "urls": 3313,
      "stopped": 3314,
      "latitude": 3315,
      "hashtable": 3316,
      "displaying": 3317,
      "followed": 3318,
      "payload": 3319,
      "speed": 3320,
      "mt": 3321,
      "uron": 3322,
      "sexception": 3323,
      "neuron": 3324,
      "strip": 3325,
      "verbo": 3326,
      "paralle": 3327,
      "randomly": 3328,
      "succeed": 3329,
      "javascript": 3330,
      "splits": 3331,
      "vor": 3332,
      "replic": 3333,
      "applying": 3334,
      "resolver": 3335,
      "editing": 3336,
      "escapes": 3337,
      "occurrences": 3338,
      "establish": 3339,
      "ier": 3340,
      "sian": 3341,
      "pointed": 3342,
      "making": 3343,
      "taking": 3344,
      "bytearray": 3345,
      "overflow": 3346,
      "minute": 3347,
      "flat": 3348,
      "tracking": 3349,
      "numerical": 3350,
      "precision": 3351,
      "tooth": 3352,
      "bridge": 3353,
      "frequency": 3354,
      "roo": 3355,
      "chrono": 3356,
      "transactions": 3357,
      "journ": 3358,
      "reporting": 3359,
      "released": 3360,
      "lazy": 3361,
      "bluetooth": 3362,
      "scenario": 3363,
      "checksum": 3364,
      "expired": 3365,
      "ranges": 3366,
      "activate": 3367,
      "pretty": 3368,
      "repeat": 3369,
      "mechanism": 3370,
      "protected": 3371,
      "thumbnail": 3372,
      "ben": 3373,
      "rp": 3374,
      "timpl": 3375,
      "trun": 3376,
      "shallow": 3377,
      "archive": 3378,
      "collap": 3379,
      "allowing": 3380,
      "histogram": 3381,
      "patterns": 3382,
      "shell": 3383,
      "frees": 3384,
      "topology": 3385,
      "xsl": 3386,
      "passing": 3387,
      "modules": 3388,
      "filesystem": 3389,
      "figure": 3390,
      "bor": 3391,
      "grow": 3392,
      "ache": 3393,
      "validity": 3394,
      "variant": 3395,
      "nbt": 3396,
      "vp": 3397,
      "backing": 3398,
      "connec": 3399,
      "toolbar": 3400,
      "editable": 3401,
      "quotes": 3402,
      "explicitly": 3403,
      "relevant": 3404,
      "git": 3405,
      "shado": 3406,
      "sound": 3407,
      "integr": 3408,
      "smalle": 3409,
      "subtract": 3410,
      "journal": 3411,
      "soft": 3412,
      "independent": 3413,
      "toge": 3414,
      "renam": 3415,
      "clon": 3416,
      "four": 3417,
      "javax": 3418,
      "letter": 3419,
      "phy": 3420,
      "visited": 3421,
      "tick": 3422,
      "async": 3423,
      "expanded": 3424,
      "saml": 3425,
      "anony": 3426,
      "arm": 3427,
      "cles": 3428,
      "keystore": 3429,
      "typed": 3430,
      "populates": 3431,
      "meaning": 3432,
      "styleshe": 3433,
      "smallest": 3434,
      "together": 3435,
      "give": 3436,
      "truth": 3437,
      "logged": 3438,
      "sized": 3439,
      "produced": 3440,
      "compound": 3441,
      "trees": 3442,
      "anonymous": 3443,
      "spective": 3444,
      "viewer": 3445,
      "responsible": 3446,
      "floating": 3447,
      "callbacks": 3448,
      "delimited": 3449,
      "leading": 3450,
      "shift": 3451,
      "acquire": 3452,
      "parallel": 3453,
      "physi": 3454,
      "attr": 3455,
      "devices": 3456,
      "converting": 3457,
      "changing": 3458,
      "longitude": 3459,
      "diff": 3460,
      "subscribe": 3461,
      "cing": 3462,
      "theme": 3463,
      "ink": 3464,
      "acti": 3465,
      "accumul": 3466,
      "newline": 3467,
      "anything": 3468,
      "dismis": 3469,
      "decoder": 3470,
      "resolution": 3471,
      "become": 3472,
      "days": 3473,
      "material": 3474,
      "js": 3475,
      "bounding": 3476,
      "opening": 3477,
      "octe": 3478,
      "turns": 3479,
      "guaranteed": 3480,
      "ned": 3481,
      "demo": 3482,
      "retain": 3483,
      "compress": 3484,
      "pages": 3485,
      "sources": 3486,
      "largest": 3487,
      "closest": 3488,
      "imports": 3489,
      "difference": 3490,
      "gesture": 3491,
      "rotate": 3492,
      "quanti": 3493,
      "continuous": 3494,
      "regex": 3495,
      "instr": 3496,
      "acl": 3497,
      "codes": 3498,
      "exis": 3499,
      "older": 3500,
      "conditional": 3501,
      "cart": 3502,
      "mand": 3503,
      "pause": 3504,
      "controls": 3505,
      "highest": 3506,
      "routing": 3507,
      "stylesheet": 3508,
      "ports": 3509,
      "dev": 3510,
      "locally": 3511,
      "promp": 3512,
      "home": 3513,
      "kernel": 3514,
      "aggregate": 3515,
      "sentence": 3516,
      "terminate": 3517,
      "squared": 3518,
      "aspect": 3519,
      "atomi": 3520,
      "pen": 3521,
      "ww": 3522,
      "arr": 3523,
      "signals": 3524,
      "shortcut": 3525,
      "resultset": 3526,
      "normalize": 3527,
      "unpack": 3528,
      "placed": 3529,
      "overlay": 3530,
      "manif": 3531,
      "animates": 3532,
      "axes": 3533,
      "production": 3534,
      "rotates": 3535,
      "programming": 3536,
      "fresh": 3537,
      "ings": 3538,
      "boot": 3539,
      "sym": 3540,
      "locked": 3541,
      "invoking": 3542,
      "zoo": 3543,
      "persistence": 3544,
      "chronology": 3545,
      "ior": 3546,
      "formul": 3547,
      "shor": 3548,
      "locks": 3549,
      "searching": 3550,
      "mix": 3551,
      "appending": 3552,
      "higher": 3553,
      "clicks": 3554,
      "quoted": 3555,
      "queues": 3556,
      "pseu": 3557,
      "bal": 3558,
      "far": 3559,
      "sip": 3560,
      "who": 3561,
      "outgoing": 3562,
      "printing": 3563,
      "audit": 3564,
      "refactor": 3565,
      "ens": 3566,
      "unregisters": 3567,
      "belong": 3568,
      "propa": 3569,
      "localized": 3570,
      "timezone": 3571,
      "listening": 3572,
      "rank": 3573,
      "detailed": 3574,
      "matrices": 3575,
      "https": 3576,
      "cycle": 3577,
      "schedules": 3578,
      "crl": 3579,
      "sun": 3580,
      "textual": 3581,
      "plugins": 3582,
      "serializer": 3583,
      "damage": 3584,
      "recogn": 3585,
      "percentage": 3586,
      "bag": 3587,
      "em": 3588,
      "ttle": 3589,
      "rounding": 3590,
      "acy": 3591,
      "unsupported": 3592,
      "moment": 3593,
      "locates": 3594,
      "weak": 3595,
      "providing": 3596,
      "vision": 3597,
      "collections": 3598,
      "triggers": 3599,
      "alignment": 3600,
      "zookeeper": 3601,
      "refactoring": 3602,
      "away": 3603,
      "nion": 3604,
      "redi": 3605,
      "question": 3606,
      "presence": 3607,
      "throttle": 3608,
      "observable": 3609,
      "cancelled": 3610,
      "ay": 3611,
      "dk": 3612,
      "gly": 3613,
      "gam": 3614,
      "stro": 3615,
      "ervice": 3616,
      "unregister": 3617,
      "dout": 3618,
      "quater": 3619,
      "messag": 3620,
      "correc": 3621,
      "collect": 3622,
      "sheet": 3623,
      "verbose": 3624,
      "bench": 3625,
      "quaternion": 3626,
      "mq": 3627,
      "lear": 3628,
      "consu": 3629,
      "usu": 3630,
      "inite": 3631,
      "expect": 3632,
      "contacts": 3633,
      "held": 3634,
      "larger": 3635,
      "posts": 3636,
      "tabs": 3637,
      "dependencies": 3638,
      "dtm": 3639,
      "smaller": 3640,
      "manifest": 3641,
      "much": 3642,
      "tech": 3643,
      "quality": 3644,
      "accessed": 3645,
      "mutation": 3646,
      "finishes": 3647,
      "asynchronously": 3648,
      "annotated": 3649,
      "adj": 3650,
      "near": 3651,
      "rier": 3652,
      "debugger": 3653,
      "mirror": 3654,
      "tcp": 3655,
      "ye": 3656,
      "ellip": 3657,
      "triangle": 3658,
      "overl": 3659,
      "blank": 3660,
      "wert": 3661,
      "escaped": 3662,
      "ets": 3663,
      "jdk": 3664,
      "vas": 3665,
      "ze": 3666,
      "ane": 3667,
      "gives": 3668,
      "aft": 3669,
      "iterate": 3670,
      "completes": 3671,
      "intended": 3672,
      "encountered": 3673,
      "ov": 3674,
      "recover": 3675,
      "pointe": 3676,
      "domin": 3677,
      "endor": 3678,
      "schaft": 3679,
      "categori": 3680,
      "training": 3681,
      "footer": 3682,
      "fitness": 3683,
      "ruft": 3684,
      "trailing": 3685,
      "eigenschaft": 3686,
      "gf": 3687,
      "gap": 3688,
      "ux": 3689,
      "ational": 3690,
      "construction": 3691,
      "finaliz": 3692,
      "price": 3693,
      "angular": 3694,
      "rollback": 3695,
      "conflic": 3696,
      "categories": 3697,
      "resize": 3698,
      "para": 3699,
      "signifi": 3700,
      "utils": 3701,
      "subscriber": 3702,
      "joins": 3703,
      "pseudo": 3704,
      "tun": 3705,
      "ins": 3706,
      "trim": 3707,
      "corner": 3708,
      "playback": 3709,
      "latest": 3710,
      "accepted": 3711,
      "quote": 3712,
      "simulate": 3713,
      "rgb": 3714,
      "vendor": 3715,
      "rounds": 3716,
      "wave": 3717,
      "serializable": 3718,
      "accessor": 3719,
      "preser": 3720,
      "increases": 3721,
      "bindings": 3722,
      "epo": 3723,
      "evi": 3724,
      "tint": 3725,
      "setter": 3726,
      "offer": 3727,
      "tiene": 3728,
      "const": 3729,
      "forwards": 3730,
      "mag": 3731,
      "boo": 3732,
      "sug": 3733,
      "canvas": 3734,
      "license": 3735,
      "flavor": 3736,
      "constants": 3737,
      "reflect": 3738,
      "scheduled": 3739,
      "activi": 3740,
      "dst": 3741,
      "alone": 3742,
      "neigh": 3743,
      "clones": 3744,
      "curve": 3745,
      "pops": 3746,
      "accep": 3747,
      "wildcards": 3748,
      "adjusts": 3749,
      "weights": 3750,
      "tos": 3751,
      "fied": 3752,
      "stra": 3753,
      "recip": 3754,
      "converted": 3755,
      "initializing": 3756,
      "activated": 3757,
      "placement": 3758,
      "dispatcher": 3759,
      "slider": 3760,
      "queued": 3761,
      "recycler": 3762,
      "epoch": 3763,
      "cdata": 3764,
      "stub": 3765,
      "chunks": 3766,
      "hides": 3767,
      "badge": 3768,
      "connectivity": 3769,
      "jmx": 3770,
      "rs": 3771,
      "uts": 3772,
      "tives": 3773,
      "alb": 3774,
      "mexception": 3775,
      "disconnect": 3776,
      "encoder": 3777,
      "counters": 3778,
      "bounded": 3779,
      "compatibility": 3780,
      "atomic": 3781,
      "intersects": 3782,
      "friend": 3783,
      "several": 3784,
      "uter": 3785,
      "vec": 3786,
      "envelo": 3787,
      "idle": 3788,
      "signer": 3789,
      "formatting": 3790,
      "caret": 3791,
      "association": 3792,
      "multimap": 3793,
      "multicast": 3794,
      "ldif": 3795,
      "highlight": 3796,
      "owned": 3797,
      "synchronization": 3798,
      "rendered": 3799,
      "transient": 3800,
      "normalizes": 3801,
      "destroys": 3802,
      "sharing": 3803,
      "album": 3804,
      "grad": 3805,
      "slo": 3806,
      "unmodifi": 3807,
      "forms": 3808,
      "reduce": 3809,
      "piec": 3810,
      "spawn": 3811,
      "svgom": 3812,
      "physical": 3813,
      "tv": 3814,
      "nullpointe": 3815,
      "equip": 3816,
      "barrier": 3817,
      "aligned": 3818,
      "cumulative": 3819,
      "nullpointerexception": 3820,
      "dns": 3821,
      "ql": 3822,
      "observers": 3823,
      "reci": 3824,
      "supplier": 3825,
      "modifies": 3826,
      "uniformly": 3827,
      "susp": 3828,
      "ef": 3829,
      "intro": 3830,
      "istic": 3831,
      "parameterized": 3832,
      "models": 3833,
      "transpa": 3834,
      "sorting": 3835,
      "marshal": 3836,
      "dirty": 3837,
      "advances": 3838,
      "authenticated": 3839,
      "counting": 3840,
      "capabilities": 3841,
      "outer": 3842,
      "framework": 3843,
      "increase": 3844,
      "combination": 3845,
      "ki": 3846,
      "nomin": 3847,
      "protection": 3848,
      "viol": 3849,
      "shader": 3850,
      "respect": 3851,
      "animated": 3852,
      "chaining": 3853,
      "alive": 3854,
      "lease": 3855,
      "defer": 3856,
      "calculated": 3857,
      "animations": 3858,
      "structural": 3859,
      "divider": 3860,
      "detected": 3861,
      "interfaces": 3862,
      "keyword": 3863,
      "directed": 3864,
      "copied": 3865,
      "capt": 3866,
      "delivery": 3867,
      "inver": 3868,
      "devi": 3869,
      "doing": 3870,
      "layers": 3871,
      "compiled": 3872,
      "detect": 3873,
      "clipboard": 3874,
      "glyph": 3875,
      "junit": 3876,
      "ka": 3877,
      "stdout": 3878,
      "arrow": 3879,
      "quit": 3880,
      "hashes": 3881,
      "camp": 3882,
      "scans": 3883,
      "migration": 3884,
      "thandler": 3885,
      "fur": 3886,
      "pic": 3887,
      "rd": 3888,
      "zed": 3889,
      "roles": 3890,
      "shuts": 3891,
      "located": 3892,
      "initiated": 3893,
      "replaced": 3894,
      "tracks": 3895,
      "describes": 3896,
      "aggregation": 3897,
      "dtd": 3898,
      "pipeline": 3899,
      "usuario": 3900,
      "centered": 3901,
      "har": 3902,
      "saving": 3903,
      "seen": 3904,
      "resume": 3905,
      "obser": 3906,
      "repa": 3907,
      "recent": 3908,
      "overall": 3909,
      "collects": 3910,
      "profil": 3911,
      "retrieved": 3912,
      "descend": 3913,
      "pto": 3914,
      "outline": 3915,
      "logout": 3916,
      "others": 3917,
      "versions": 3918,
      "activation": 3919,
      "increas": 3920,
      "unix": 3921,
      "writable": 3922,
      "broker": 3923,
      "dumps": 3924,
      "octet": 3925,
      "atomically": 3926,
      "cc": 3927,
      "eg": 3928,
      "gzip": 3929,
      "nt": 3930,
      "inputs": 3931,
      "alcul": 3932,
      "uel": 3933,
      "lowe": 3934,
      "elap": 3935,
      "recently": 3936,
      "textfield": 3937,
      "expi": 3938,
      "expir": 3939,
      "playing": 3940,
      "argumen": 3941,
      "graphical": 3942,
      "scene": 3943,
      "identifies": 3944,
      "beancontext": 3945,
      "movement": 3946,
      "terminated": 3947,
      "strict": 3948,
      "synchronously": 3949,
      "shadow": 3950,
      "bill": 3951,
      "vt": 3952,
      "xor": 3953,
      "spri": 3954,
      "sig": 3955,
      "abort": 3956,
      "cant": 3957,
      "regard": 3958,
      "asks": 3959,
      "offsets": 3960,
      "initialcapacity": 3961,
      "identifiers": 3962,
      "ancestor": 3963,
      "transformer": 3964,
      "encapsulates": 3965,
      "occured": 3966,
      "tx": 3967,
      "wall": 3968,
      "constit": 3969,
      "exchange": 3970,
      "commits": 3971,
      "partici": 3972,
      "implicit": 3973,
      "printed": 3974,
      "slice": 3975,
      "delegates": 3976,
      "vplex": 3977,
      "jor": 3978,
      "zz": 3979,
      "tedexception": 3980,
      "leep": 3981,
      "foos": 3982,
      "determined": 3983,
      "looking": 3984,
      "further": 3985,
      "had": 3986,
      "jump": 3987,
      "sine": 3988,
      "uris": 3989,
      "lib": 3990,
      "checker": 3991,
      "operating": 3992,
      "documen": 3993,
      "goes": 3994,
      "safely": 3995,
      "tuples": 3996,
      "monitoring": 3997,
      "appears": 3998,
      "issues": 3999,
      "accessible": 4000,
      "confirmation": 4001,
      "parents": 4002,
      "identifying": 4003,
      "lec": 4004,
      "opa": 4005,
      "concurrency": 4006,
      "come": 4007,
      "undexception": 4008,
      "backwards": 4009,
      "opaque": 4010,
      "gs": 4011,
      "stic": 4012,
      "fixt": 4013,
      "assumes": 4014,
      "ential": 4015,
      "interes": 4016,
      "templ": 4017,
      "customer": 4018,
      "tabbed": 4019,
      "privile": 4020,
      "grade": 4021,
      "exponent": 4022,
      "thashmap": 4023,
      "chooser": 4024,
      "pkcs": 4025,
      "instrument": 4026,
      "consume": 4027,
      "wers": 4028,
      "infl": 4029,
      "stun": 4030,
      "initiate": 4031,
      "propertychangelistener": 4032,
      "deletion": 4033,
      "train": 4034,
      "invalidates": 4035,
      "connecting": 4036,
      "continue": 4037,
      "happens": 4038,
      "argumentexception": 4039,
      "dash": 4040,
      "accur": 4041,
      "prox": 4042,
      "propos": 4043,
      "correlation": 4044,
      "instantiation": 4045,
      "sessions": 4046,
      "regions": 4047,
      "transluc": 4048,
      "treat": 4049,
      "awt": 4050,
      "dle": 4051,
      "mic": 4052,
      "dead": 4053,
      "coded": 4054,
      "wifi": 4055,
      "soap": 4056,
      "equation": 4057,
      "downloads": 4058,
      "warn": 4059,
      "floats": 4060,
      "dependence": 4061,
      "populated": 4062,
      "declarations": 4063,
      "expands": 4064,
      "appearance": 4065,
      "acquires": 4066,
      "parcelable": 4067,
      "recipi": 4068,
      "smo": 4069,
      "sms": 4070,
      "recomm": 4071,
      "alth": 4072,
      "wiz": 4073,
      "nosuch": 4074,
      "obje": 4075,
      "veloc": 4076,
      "determin": 4077,
      "invent": 4078,
      "advanced": 4079,
      "inherit": 4080,
      "deferred": 4081,
      "gis": 4082,
      "kill": 4083,
      "ecy": 4084,
      "ados": 4085,
      "entrop": 4086,
      "stringbuffer": 4087,
      "foreg": 4088,
      "exports": 4089,
      "synthe": 4090,
      "timed": 4091,
      "radix": 4092,
      "shake": 4093,
      "potentially": 4094,
      "bul": 4095,
      "fx": 4096,
      "fing": 4097,
      "ited": 4098,
      "asset": 4099,
      "viewport": 4100,
      "subtype": 4101,
      "cube": 4102,
      "hostname": 4103,
      "indent": 4104,
      "lifecy": 4105,
      "recipe": 4106,
      "fav": 4107,
      "tele": 4108,
      "coding": 4109,
      "chall": 4110,
      "classname": 4111,
      "indentation": 4112,
      "interpolation": 4113,
      "initialises": 4114,
      "inventory": 4115,
      "inlin": 4116,
      "orter": 4117,
      "proceed": 4118,
      "ably": 4119,
      "ops": 4120,
      "sender": 4121,
      "clearing": 4122,
      "median": 4123,
      "joint": 4124,
      "minimal": 4125,
      "symbols": 4126,
      "composed": 4127,
      "obtained": 4128,
      "salt": 4129,
      "issuer": 4130,
      "reverses": 4131,
      "decrements": 4132,
      "illegalargumentexception": 4133,
      "swaps": 4134,
      "flatten": 4135,
      "envelope": 4136,
      "nominal": 4137,
      "redirect": 4138,
      "wire": 4139,
      "major": 4140,
      "atory": 4141,
      "regression": 4142,
      "margin": 4143,
      "timing": 4144,
      "traverse": 4145,
      "accordingly": 4146,
      "abstractthrottle": 4147,
      "descriptors": 4148,
      "udp": 4149,
      "decrement": 4150,
      "coefficients": 4151,
      "stroke": 4152,
      "templates": 4153,
      "alarm": 4154,
      "ucts": 4155,
      "compression": 4156,
      "shop": 4157,
      "discard": 4158,
      "pointing": 4159,
      "minutes": 4160,
      "scripts": 4161,
      "scroller": 4162,
      "webview": 4163,
      "allocates": 4164,
      "refreshes": 4165,
      "choice": 4166,
      "remainder": 4167,
      "easy": 4168,
      "intersect": 4169,
      "certpath": 4170,
      "dto": 4171,
      "fab": 4172,
      "pin": 4173,
      "sleep": 4174,
      "wron": 4175,
      "enge": 4176,
      "unmodified": 4177,
      "valued": 4178,
      "foundexception": 4179,
      "discards": 4180,
      "daos": 4181,
      "snmp": 4182,
      "namespaces": 4183,
      "secondary": 4184,
      "persists": 4185,
      "activities": 4186,
      "unmodifiable": 4187,
      "sprite": 4188,
      "entropy": 4189,
      "bri": 4190,
      "bid": 4191,
      "flight": 4192,
      "targets": 4193,
      "holding": 4194,
      "effects": 4195,
      "bayes": 4196,
      "unpacks": 4197,
      "fixture": 4198,
      "objeto": 4199,
      "foreground": 4200,
      "wrong": 4201,
      "vents": 4202,
      "redirec": 4203,
      "respective": 4204,
      "generating": 4205,
      "better": 4206,
      "arith": 4207,
      "openg": 4208,
      "performing": 4209,
      "receiving": 4210,
      "normally": 4211,
      "channels": 4212,
      "behaviour": 4213,
      "combine": 4214,
      "velocity": 4215,
      "px": 4216,
      "va": 4217,
      "restart": 4218,
      "ond": 4219,
      "ift": 4220,
      "readobject": 4221,
      "lista": 4222,
      "interce": 4223,
      "runner": 4224,
      "naming": 4225,
      "ledge": 4226,
      "treated": 4227,
      "management": 4228,
      "wizard": 4229,
      "opengl": 4230,
      "dates": 4231,
      "eof": 4232,
      "tevent": 4233,
      "che": 4234,
      "spati": 4235,
      "amb": 4236,
      "bog": 4237,
      "past": 4238,
      "expects": 4239,
      "answers": 4240,
      "startup": 4241,
      "installui": 4242,
      "interpolator": 4243,
      "artifact": 4244,
      "middle": 4245,
      "aes": 4246,
      "ban": 4247,
      "rdf": 4248,
      "colo": 4249,
      "explan": 4250,
      "containers": 4251,
      "sampl": 4252,
      "voice": 4253,
      "overlap": 4254,
      "significant": 4255,
      "sition": 4256,
      "sibility": 4257,
      "quot": 4258,
      "datastore": 4259,
      "facet": 4260,
      "market": 4261,
      "producer": 4262,
      "hosts": 4263,
      "osen": 4264,
      "snapshots": 4265,
      "xxx": 4266,
      "interested": 4267,
      "lifecycle": 4268,
      "iel": 4269,
      "py": 4270,
      "ral": 4271,
      "reuse": 4272,
      "invalidate": 4273,
      "station": 4274,
      "tid": 4275,
      "lets": 4276,
      "leaving": 4277,
      "chosen": 4278,
      "upgrade": 4279,
      "rais": 4280,
      "objectfactory": 4281,
      "ambig": 4282,
      "formal": 4283,
      "interior": 4284,
      "removal": 4285,
      "streaming": 4286,
      "handshake": 4287,
      "modes": 4288,
      "levels": 4289,
      "constrain": 4290,
      "intervals": 4291,
      "subtracts": 4292,
      "redimage": 4293,
      "translucent": 4294,
      "gisfeature": 4295,
      "lexception": 4296,
      "concurrent": 4297,
      "concrete": 4298,
      "decid": 4299,
      "calculating": 4300,
      "becom": 4301,
      "launches": 4302,
      "prompt": 4303,
      "fers": 4304,
      "land": 4305,
      "lamb": 4306,
      "ners": 4307,
      "resumes": 4308,
      "beans": 4309,
      "readers": 4310,
      "shuff": 4311,
      "endpoints": 4312,
      "aux": 4313,
      "deprec": 4314,
      "standalone": 4315,
      "combines": 4316,
      "estimate": 4317,
      "suggest": 4318,
      "elapsed": 4319,
      "expiration": 4320,
      "billing": 4321,
      "erver": 4322,
      "specializ": 4323,
      "comes": 4324,
      "inet": 4325,
      "convers": 4326,
      "deleting": 4327,
      "ketch": 4328,
      "deno": 4329,
      "seek": 4330,
      "purch": 4331,
      "alphabet": 4332,
      "sensitivity": 4333,
      "neighbor": 4334,
      "du": 4335,
      "hint": 4336,
      "ktop": 4337,
      "mob": 4338,
      "insensitive": 4339,
      "acamo": 4340,
      "initiator": 4341,
      "discover": 4342,
      "divis": 4343,
      "mysql": 4344,
      "guacamo": 4345,
      "observations": 4346,
      "formula": 4347,
      "gree": 4348,
      "revision": 4349,
      "edits": 4350,
      "seq": 4351,
      "clase": 4352,
      "paused": 4353,
      "dispose": 4354,
      "tooltip": 4355,
      "selves": 4356,
      "configurations": 4357,
      "prefixes": 4358,
      "applications": 4359,
      "scrollbar": 4360,
      "evaluator": 4361,
      "grab": 4362,
      "separators": 4363,
      "authority": 4364,
      "sliding": 4365,
      "diagno": 4366,
      "acceptable": 4367,
      "proposal": 4368,
      "cros": 4369,
      "ito": 4370,
      "echo": 4371,
      "arily": 4372,
      "unused": 4373,
      "ationexception": 4374,
      "structs": 4375,
      "shr": 4376,
      "shorts": 4377,
      "listed": 4378,
      "players": 4379,
      "visu": 4380,
      "scrip": 4381,
      "constru": 4382,
      "things": 4383,
      "brac": 4384,
      "recovery": 4385,
      "reserved": 4386,
      "dum": 4387,
      "refills": 4388,
      "acting": 4389,
      "desktop": 4390,
      "archiv": 4391,
      "blocked": 4392,
      "membership": 4393,
      "escaping": 4394,
      "encrypts": 4395,
      "breakpoint": 4396,
      "optimized": 4397,
      "concatenates": 4398,
      "emo": 4399,
      "fam": 4400,
      "kml": 4401,
      "luc": 4402,
      "sci": 4403,
      "sector": 4404,
      "rea": 4405,
      "enclosing": 4406,
      "actor": 4407,
      "destruction": 4408,
      "detection": 4409,
      "specifier": 4410,
      "apps": 4411,
      "transfers": 4412,
      "omgraphic": 4413,
      "activates": 4414,
      "synap": 4415,
      "extends": 4416,
      "correspond": 4417,
      "scaled": 4418,
      "division": 4419,
      "amples": 4420,
      "choose": 4421,
      "sdk": 4422,
      "authenticator": 4423,
      "contract": 4424,
      "finger": 4425,
      "bble": 4426,
      "pec": 4427,
      "rational": 4428,
      "slow": 4429,
      "wants": 4430,
      "invi": 4431,
      "admini": 4432,
      "finder": 4433,
      "manually": 4434,
      "caused": 4435,
      "canceled": 4436,
      "enumer": 4437,
      "comparing": 4438,
      "dragging": 4439,
      "launcher": 4440,
      "circular": 4441,
      "operands": 4442,
      "boost": 4443,
      "ambigu": 4444,
      "divisor": 4445,
      "bes": 4446,
      "hh": 4447,
      "sas": 4448,
      "isol": 4449,
      "gem": 4450,
      "simpl": 4451,
      "poke": 4452,
      "agraph": 4453,
      "decreas": 4454,
      "country": 4455,
      "fragments": 4456,
      "transformed": 4457,
      "trying": 4458,
      "tracker": 4459,
      "comparable": 4460,
      "crypto": 4461,
      "effective": 4462,
      "correction": 4463,
      "deviation": 4464,
      "lowest": 4465,
      "smoo": 4466,
      "favori": 4467,
      "administr": 4468,
      "jcomponent": 4469,
      "scop": 4470,
      "remember": 4471,
      "methode": 4472,
      "locate": 4473,
      "recalcul": 4474,
      "nodelist": 4475,
      "prediction": 4476,
      "health": 4477,
      "nulls": 4478,
      "structures": 4479,
      "synchronizer": 4480,
      "termination": 4481,
      "operators": 4482,
      "coverts": 4483,
      "advance": 4484,
      "interpreter": 4485,
      "construye": 4486,
      "tls": 4487,
      "company": 4488,
      "compact": 4489,
      "applet": 4490,
      "docs": 4491,
      "modul": 4492,
      "describe": 4493,
      "snack": 4494,
      "jobs": 4495,
      "detector": 4496,
      "interrupted": 4497,
      "wallet": 4498,
      "devuel": 4499,
      "gif": 4500,
      "sla": 4501,
      "void": 4502,
      "rej": 4503,
      "liance": 4504,
      "trusted": 4505,
      "compr": 4506,
      "initiates": 4507,
      "played": 4508,
      "implementing": 4509,
      "good": 4510,
      "pools": 4511,
      "packed": 4512,
      "owns": 4513,
      "radio": 4514,
      "indication": 4515,
      "projects": 4516,
      "quantile": 4517,
      "picture": 4518,
      "recommend": 4519,
      "ath": 4520,
      "gradi": 4521,
      "junction": 4522,
      "kit": 4523,
      "nn": 4524,
      "ox": 4525,
      "pas": 4526,
      "sage": 4527,
      "really": 4528,
      "ener": 4529,
      "enqueue": 4530,
      "ession": 4531,
      "apache": 4532,
      "trims": 4533,
      "initializer": 4534,
      "packages": 4535,
      "verification": 4536,
      "legend": 4537,
      "skipped": 4538,
      "fficient": 4539,
      "potential": 4540,
      "lambda": 4541,
      "dummy": 4542,
      "devuelve": 4543,
      "ade": 4544,
      "rc": 4545,
      "tob": 4546,
      "sem": 4547,
      "ifd": 4548,
      "lide": 4549,
      "checkbox": 4550,
      "explo": 4551,
      "responds": 4552,
      "workbench": 4553,
      "animate": 4554,
      "merged": 4555,
      "skipping": 4556,
      "walk": 4557,
      "specialized": 4558,
      "bc": 4559,
      "mise": 4560,
      "ongoing": 4561,
      "permit": 4562,
      "sounds": 4563,
      "disconnects": 4564,
      "backward": 4565,
      "hood": 4566,
      "hashing": 4567,
      "systems": 4568,
      "overriden": 4569,
      "encrypt": 4570,
      "surro": 4571,
      "yyyy": 4572,
      "estimated": 4573,
      "elimina": 4574,
      "alternative": 4575,
      "approximate": 4576,
      "substitution": 4577,
      "dismiss": 4578,
      "bulk": 4579,
      "got": 4580,
      "qname": 4581,
      "zk": 4582,
      "urable": 4583,
      "sides": 4584,
      "rowset": 4585,
      "opcode": 4586,
      "playlist": 4587,
      "monad": 4588,
      "pooled": 4589,
      "phr": 4590,
      "warnings": 4591,
      "persisted": 4592,
      "fetches": 4593,
      "combined": 4594,
      "accessibility": 4595,
      "shards": 4596,
      "adjac": 4597,
      "spatial": 4598,
      "gemfire": 4599,
      "zes": 4600,
      "thr": 4601,
      "reload": 4602,
      "rebuild": 4603,
      "sid": 4604,
      "promise": 4605,
      "examples": 4606,
      "providers": 4607,
      "filterfactory": 4608,
      "wake": 4609,
      "instantiable": 4610,
      "delive": 4611,
      "bookmark": 4612,
      "infinite": 4613,
      "qualifier": 4614,
      "picker": 4615,
      "weighted": 4616,
      "approximation": 4617,
      "challenge": 4618,
      "becomes": 4619,
      "deprecated": 4620,
      "snackbar": 4621,
      "blo": 4622,
      "care": 4623,
      "jsp": 4624,
      "thus": 4625,
      "limited": 4626,
      "groov": 4627,
      "tokener": 4628,
      "refers": 4629,
      "dense": 4630,
      "icons": 4631,
      "attaches": 4632,
      "requirements": 4633,
      "claim": 4634,
      "succeeds": 4635,
      "cloned": 4636,
      "sasl": 4637,
      "delivered": 4638,
      "groovy": 4639,
      "jms": 4640,
      "tap": 4641,
      "acion": 4642,
      "paragraph": 4643,
      "bom": 4644,
      "disposes": 4645,
      "colon": 4646,
      "nodeset": 4647,
      "multiplication": 4648,
      "polyline": 4649,
      "rounded": 4650,
      "classification": 4651,
      "releasing": 4652,
      "highlighted": 4653,
      "piece": 4654,
      "repaint": 4655,
      "fed": 4656,
      "oauth": 4657,
      "rates": 4658,
      "obox": 4659,
      "constructing": 4660,
      "hot": 4661,
      "widgets": 4662,
      "successor": 4663,
      "deserialized": 4664,
      "attachment": 4665,
      "guess": 4666,
      "crash": 4667,
      "optimization": 4668,
      "javad": 4669,
      "gaus": 4670,
      "leaves": 4671,
      "restriction": 4672,
      "euc": 4673,
      "xmp": 4674,
      "reject": 4675,
      "independence": 4676,
      "tour": 4677,
      "toler": 4678,
      "escri": 4679,
      "spin": 4680,
      "sphere": 4681,
      "ified": 4682,
      "exits": 4683,
      "assand": 4684,
      "magn": 4685,
      "subsequ": 4686,
      "say": 4687,
      "receip": 4688,
      "detects": 4689,
      "consumed": 4690,
      "gather": 4691,
      "roster": 4692,
      "quantity": 4693,
      "constucts": 4694,
      "recipient": 4695,
      "shopping": 4696,
      "auxili": 4697,
      "gradient": 4698,
      "fon": 4699,
      "fine": 4700,
      "gain": 4701,
      "oute": 4702,
      "png": 4703,
      "uint": 4704,
      "rex": 4705,
      "recur": 4706,
      "enode": 4707,
      "utc": 4708,
      "signatures": 4709,
      "functional": 4710,
      "respond": 4711,
      "empties": 4712,
      "calculator": 4713,
      "fault": 4714,
      "algorithms": 4715,
      "cardin": 4716,
      "keeping": 4717,
      "interrupt": 4718,
      "extracted": 4719,
      "unexp": 4720,
      "emon": 4721,
      "ja": 4722,
      "twi": 4723,
      "router": 4724,
      "stringbuilder": 4725,
      "interaction": 4726,
      "sufficient": 4727,
      "alize": 4728,
      "trie": 4729,
      "disconnected": 4730,
      "discrete": 4731,
      "rowse": 4732,
      "fake": 4733,
      "producing": 4734,
      "coverage": 4735,
      "purpose": 4736,
      "millisecond": 4737,
      "recovered": 4738,
      "combobox": 4739,
      "regardless": 4740,
      "bogus": 4741,
      "auxiliary": 4742,
      "cassand": 4743,
      "did": 4744,
      "guid": 4745,
      "sketch": 4746,
      "inject": 4747,
      "deal": 4748,
      "develo": 4749,
      "usable": 4750,
      "unmarshall": 4751,
      "silon": 4752,
      "reported": 4753,
      "backslash": 4754,
      "overwrite": 4755,
      "communication": 4756,
      "manner": 4757,
      "ories": 4758,
      "insertion": 4759,
      "recorded": 4760,
      "packets": 4761,
      "follows": 4762,
      "consumes": 4763,
      "publisher": 4764,
      "equipment": 4765,
      "conversation": 4766,
      "javadoc": 4767,
      "ores": 4768,
      "vs": 4769,
      "apk": 4770,
      "listview": 4771,
      "overscrolling": 4772,
      "booleans": 4773,
      "epsilon": 4774,
      "switches": 4775,
      "reachable": 4776,
      "duplicates": 4777,
      "mixed": 4778,
      "increasing": 4779,
      "lucene": 4780,
      "npc": 4781,
      "stuff": 4782,
      "metodo": 4783,
      "covariance": 4784,
      "rence": 4785,
      "typeexpression": 4786,
      "datainput": 4787,
      "caching": 4788,
      "dialogue": 4789,
      "letters": 4790,
      "gateway": 4791,
      "periodic": 4792,
      "partitions": 4793,
      "granted": 4794,
      "decrypt": 4795,
      "alternate": 4796,
      "coefficient": 4797,
      "arriv": 4798,
      "slots": 4799,
      "transparent": 4800,
      "ico": 4801,
      "zon": 4802,
      "ede": 4803,
      "fies": 4804,
      "fits": 4805,
      "usually": 4806,
      "utor": 4807,
      "upport": 4808,
      "movie": 4809,
      "party": 4810,
      "finding": 4811,
      "appended": 4812,
      "travel": 4813,
      "compiles": 4814,
      "drive": 4815,
      "lipse": 4816,
      "informs": 4817,
      "mqtt": 4818,
      "suggestion": 4819,
      "craw": 4820,
      "dh": 4821,
      "nb": 4822,
      "review": 4823,
      "rewrite": 4824,
      "lite": 4825,
      "obtiene": 4826,
      "compose": 4827,
      "cial": 4828,
      "indexing": 4829,
      "operate": 4830,
      "determining": 4831,
      "ird": 4832,
      "configurationexception": 4833,
      "calculation": 4834,
      "monito": 4835,
      "edgelist": 4836,
      "placeholder": 4837,
      "authenticate": 4838,
      "dragsource": 4839,
      "initialised": 4840,
      "decompress": 4841,
      "documento": 4842,
      "tolerance": 4843,
      "rowsetimpl": 4844,
      "pm": 4845,
      "vation": 4846,
      "meters": 4847,
      "spliter": 4848,
      "lost": 4849,
      "tarea": 4850,
      "pet": 4851,
      "bolic": 4852,
      "shot": 4853,
      "attributed": 4854,
      "cia": 4855,
      "facebook": 4856,
      "markers": 4857,
      "publickey": 4858,
      "macro": 4859,
      "jaxb": 4860,
      "participan": 4861,
      "explanation": 4862,
      "energy": 4863,
      "thrift": 4864,
      "edgelistgraph": 4865,
      "duc": 4866,
      "resetting": 4867,
      "oncreate": 4868,
      "stick": 4869,
      "stmt": 4870,
      "coder": 4871,
      "bey": 4872,
      "uploads": 4873,
      "textview": 4874,
      "anyone": 4875,
      "exported": 4876,
      "decide": 4877,
      "imageview": 4878,
      "particle": 4879,
      "econtext": 4880,
      "assignable": 4881,
      "swipe": 4882,
      "focused": 4883,
      "preced": 4884,
      "sparsearray": 4885,
      "solutions": 4886,
      "malformed": 4887,
      "excluded": 4888,
      "family": 4889,
      "rsa": 4890,
      "codec": 4891,
      "unc": 4892,
      "nots": 4893,
      "checkpoint": 4894,
      "icated": 4895,
      "orders": 4896,
      "jsontokener": 4897,
      "ouble": 4898,
      "appropriately": 4899,
      "probably": 4900,
      "crc": 4901,
      "bufferedimage": 4902,
      "lowercase": 4903,
      "acquired": 4904,
      "toggles": 4905,
      "nano": 4906,
      "magic": 4907,
      "recyclerview": 4908,
      "proxied": 4909,
      "purchase": 4910,
      "blast": 4911,
      "cid": 4912,
      "his": 4913,
      "ian": 4914,
      "ible": 4915,
      "reil": 4916,
      "restored": 4917,
      "rich": 4918,
      "clamp": 4919,
      "decl": 4920,
      "heart": 4921,
      "imag": 4922,
      "downloaded": 4923,
      "ordinal": 4924,
      "styled": 4925,
      "terminates": 4926,
      "splitting": 4927,
      "problems": 4928,
      "declare": 4929,
      "knowledge": 4930,
      "decryption": 4931,
      "fallback": 4932,
      "synapse": 4933,
      "dar": 4934,
      "degree": 4935,
      "ueba": 4936,
      "valores": 4937,
      "limits": 4938,
      "perm": 4939,
      "ices": 4940,
      "foreign": 4941,
      "casts": 4942,
      "likeli": 4943,
      "article": 4944,
      "colour": 4945,
      "receipt": 4946,
      "bank": 4947,
      "baud": 4948,
      "mas": 4949,
      "pred": 4950,
      "sso": 4951,
      "reconstit": 4952,
      "instructs": 4953,
      "semi": 4954,
      "unlock": 4955,
      "valor": 4956,
      "beat": 4957,
      "doget": 4958,
      "matsim": 4959,
      "responses": 4960,
      "capability": 4961,
      "cacheheader": 4962,
      "managers": 4963,
      "markup": 4964,
      "barcode": 4965,
      "implementations": 4966,
      "lookand": 4967,
      "scrolls": 4968,
      "cookies": 4969,
      "computing": 4970,
      "mandatory": 4971,
      "gamma": 4972,
      "invite": 4973,
      "lidean": 4974,
      "euclidean": 4975,
      "cardinality": 4976,
      "likelihood": 4977,
      "uti": 4978,
      "vdc": 4979,
      "zier": 4980,
      "insp": 4981,
      "anno": 4982,
      "ances": 4983,
      "alter": 4984,
      "acle": 4985,
      "loss": 4986,
      "sil": 4987,
      "limpl": 4988,
      "peop": 4989,
      "sour": 4990,
      "soot": 4991,
      "initiators": 4992,
      "indexth": 4993,
      "writeobject": 4994,
      "binder": 4995,
      "dedicated": 4996,
      "evaluated": 4997,
      "legion": 4998,
      "buckets": 4999,
      "exclude": 5000,
      "highlights": 5001,
      "satisfied": 5002,
      "triple": 5003,
      "renames": 5004,
      "observed": 5005,
      "phrase": 5006,
      "beyond": 5007,
      "people": 5008,
      "piv": 5009,
      "tang": 5010,
      "water": 5011,
      "err": 5012,
      "painter": 5013,
      "placing": 5014,
      "provision": 5015,
      "invit": 5016,
      "multiplex": 5017,
      "normalization": 5018,
      "imator": 5019,
      "speech": 5020,
      "detaches": 5021,
      "bootstr": 5022,
      "pokemon": 5023,
      "sagetv": 5024,
      "surrogate": 5025,
      "lookandfeel": 5026,
      "aware": 5027,
      "ious": 5028,
      "jk": 5029,
      "enclosed": 5030,
      "ales": 5031,
      "spi": 5032,
      "bezier": 5033,
      "utput": 5034,
      "raft": 5035,
      "izations": 5036,
      "rayal": 5037,
      "collation": 5038,
      "minus": 5039,
      "flash": 5040,
      "verifying": 5041,
      "assertions": 5042,
      "dfs": 5043,
      "easing": 5044,
      "rooted": 5045,
      "friendly": 5046,
      "shrink": 5047,
      "comprueba": 5048,
      "dit": 5049,
      "qr": 5050,
      "vms": 5051,
      "team": 5052,
      "onal": 5053,
      "ale": 5054,
      "among": 5055,
      "requesting": 5056,
      "istics": 5057,
      "longest": 5058,
      "docker": 5059,
      "scr": 5060,
      "products": 5061,
      "websocket": 5062,
      "notice": 5063,
      "processors": 5064,
      "canonic": 5065,
      "cador": 5066,
      "trunc": 5067,
      "magnitude": 5068,
      "unexpected": 5069,
      "agen": 5070,
      "bon": 5071,
      "gps": 5072,
      "rdn": 5073,
      "incomplete": 5074,
      "eclipse": 5075,
      "unmanaged": 5076,
      "notfoundexception": 5077,
      "intermediate": 5078,
      "acknow": 5079,
      "ager": 5080,
      "cleared": 5081,
      "httpclient": 5082,
      "zeros": 5083,
      "solver": 5084,
      "vola": 5085,
      "simpli": 5086,
      "parented": 5087,
      "decrypts": 5088,
      "tears": 5089,
      "inherited": 5090,
      "learner": 5091,
      "inlining": 5092,
      "ahead": 5093,
      "cm": 5094,
      "cup": 5095,
      "dml": 5096,
      "rpc": 5097,
      "tro": 5098,
      "rev": 5099,
      "arranges": 5100,
      "basedcache": 5101,
      "overriding": 5102,
      "extend": 5103,
      "closeable": 5104,
      "parsers": 5105,
      "scores": 5106,
      "merging": 5107,
      "blur": 5108,
      "diskbasedcache": 5109,
      "folders": 5110,
      "ignores": 5111,
      "exifinterface": 5112,
      "similarity": 5113,
      "inetaddress": 5114,
      "mobile": 5115,
      "recommendation": 5116,
      "cg": 5117,
      "cise": 5118,
      "pes": 5119,
      "ansion": 5120,
      "stren": 5121,
      "alty": 5122,
      "ades": 5123,
      "callable": 5124,
      "expansion": 5125,
      "transit": 5126,
      "tagged": 5127,
      "documentation": 5128,
      "linux": 5129,
      "edited": 5130,
      "daemon": 5131,
      "joined": 5132,
      "ffic": 5133,
      "important": 5134,
      "uppercase": 5135,
      "assumed": 5136,
      "hours": 5137,
      "falls": 5138,
      "established": 5139,
      "ambiguous": 5140,
      "fonts": 5141,
      "heartbeat": 5142,
      "streng": 5143,
      "npe": 5144,
      "san": 5145,
      "zei": 5146,
      "stable": 5147,
      "como": 5148,
      "beh": 5149,
      "aml": 5150,
      "tend": 5151,
      "tention": 5152,
      "formate": 5153,
      "interactive": 5154,
      "logarith": 5155,
      "signing": 5156,
      "suppor": 5157,
      "plays": 5158,
      "associate": 5159,
      "inserting": 5160,
      "mediap": 5161,
      "filling": 5162,
      "flushing": 5163,
      "statistic": 5164,
      "automatic": 5165,
      "palet": 5166,
      "efficient": 5167,
      "easier": 5168,
      "leader": 5169,
      "extractor": 5170,
      "injection": 5171,
      "penalty": 5172,
      "techn": 5173,
      "campo": 5174,
      "gaussian": 5175,
      "monitored": 5176,
      "emul": 5177,
      "kin": 5178,
      "mne": 5179,
      "won": 5180,
      "alliance": 5181,
      "ched": 5182,
      "wiki": 5183,
      "exam": 5184,
      "extern": 5185,
      "servi": 5186,
      "peers": 5187,
      "redis": 5188,
      "timeoute": 5189,
      "typing": 5190,
      "coordinator": 5191,
      "definite": 5192,
      "selecting": 5193,
      "rotating": 5194,
      "bitset": 5195,
      "symmetric": 5196,
      "ield": 5197,
      "visualization": 5198,
      "slave": 5199,
      "utili": 5200,
      "bootstrap": 5201,
      "cron": 5202,
      "hp": 5203,
      "mone": 5204,
      "pp": 5205,
      "online": 5206,
      "tier": 5207,
      "tiles": 5208,
      "ors": 5209,
      "fich": 5210,
      "deregisters": 5211,
      "ital": 5212,
      "dial": 5213,
      "serve": 5214,
      "intarray": 5215,
      "channe": 5216,
      "boxes": 5217,
      "signs": 5218,
      "corners": 5219,
      "characteristics": 5220,
      "appender": 5221,
      "putimpl": 5222,
      "cuit": 5223,
      "divides": 5224,
      "probabilities": 5225,
      "circuit": 5226,
      "breaks": 5227,
      "navig": 5228,
      "keeps": 5229,
      "reversed": 5230,
      "highlighting": 5231,
      "bytearrayoutputstream": 5232,
      "collapse": 5233,
      "micro": 5234,
      "brief": 5235,
      "escriptor": 5236,
      "aa": 5237,
      "bic": 5238,
      "kaf": 5239,
      "scor": 5240,
      "uent": 5241,
      "uish": 5242,
      "entexception": 5243,
      "rome": 5244,
      "creator": 5245,
      "veto": 5246,
      "qui": 5247,
      "quart": 5248,
      "prevents": 5249,
      "submits": 5250,
      "offline": 5251,
      "urlconnection": 5252,
      "bugs": 5253,
      "phan": 5254,
      "automat": 5255,
      "clicking": 5256,
      "guard": 5257,
      "www": 5258,
      "favorite": 5259,
      "subsequent": 5260,
      "scoring": 5261,
      "quartz": 5262,
      "ball": 5263,
      "cpu": 5264,
      "fly": 5265,
      "jack": 5266,
      "std": 5267,
      "inguish": 5268,
      "routes": 5269,
      "deactivate": 5270,
      "lover": 5271,
      "giving": 5272,
      "resum": 5273,
      "idp": 5274,
      "tracing": 5275,
      "clob": 5276,
      "delement": 5277,
      "causing": 5278,
      "understand": 5279,
      "stopping": 5280,
      "typically": 5281,
      "differen": 5282,
      "registrar": 5283,
      "zooms": 5284,
      "consists": 5285,
      "restricted": 5286,
      "retains": 5287,
      "synthetic": 5288,
      "sampling": 5289,
      "cq": 5290,
      "das": 5291,
      "latch": 5292,
      "nice": 5293,
      "zones": 5294,
      "restarts": 5295,
      "infin": 5296,
      "ider": 5297,
      "datac": 5298,
      "ples": 5299,
      "ghts": 5300,
      "manip": 5301,
      "iterated": 5302,
      "textarea": 5303,
      "portrayal": 5304,
      "traffic": 5305,
      "panels": 5306,
      "policies": 5307,
      "covering": 5308,
      "partitioned": 5309,
      "combining": 5310,
      "credential": 5311,
      "ignorable": 5312,
      "restrictions": 5313,
      "life": 5314,
      "mathcontext": 5315,
      "datagramchanne": 5316,
      "eviction": 5317,
      "captured": 5318,
      "decides": 5319,
      "strength": 5320,
      "manipul": 5321,
      "datagramchannelimpl": 5322,
      "ftp": 5323,
      "tac": 5324,
      "reloads": 5325,
      "demon": 5326,
      "coord": 5327,
      "sites": 5328,
      "aborts": 5329,
      "izing": 5330,
      "listing": 5331,
      "pager": 5332,
      "pauses": 5333,
      "supplement": 5334,
      "iterations": 5335,
      "english": 5336,
      "multipart": 5337,
      "occup": 5338,
      "clusters": 5339,
      "enumber": 5340,
      "runtimeexception": 5341,
      "entirely": 5342,
      "transitions": 5343,
      "modifications": 5344,
      "decorator": 5345,
      "preparedstatement": 5346,
      "guacamole": 5347,
      "slidingmenu": 5348,
      "volatile": 5349,
      "mediaplayer": 5350,
      "mnemon": 5351,
      "hs": 5352,
      "jec": 5353,
      "repo": 5354,
      "isten": 5355,
      "adverti": 5356,
      "permutation": 5357,
      "filewriter": 5358,
      "descending": 5359,
      "tools": 5360,
      "directive": 5361,
      "parameterspec": 5362,
      "goto": 5363,
      "stype": 5364,
      "authn": 5365,
      "synchronizes": 5366,
      "yperef": 5367,
      "distinguish": 5368,
      "cfg": 5369,
      "satisfy": 5370,
      "excluding": 5371,
      "exceeded": 5372,
      "decompo": 5373,
      "balance": 5374,
      "ensive": 5375,
      "recoverable": 5376,
      "tinting": 5377,
      "behind": 5378,
      "technical": 5379,
      "kafka": 5380,
      "cv": 5381,
      "tl": 5382,
      "uation": 5383,
      "utive": 5384,
      "ena": 5385,
      "ads": 5386,
      "unavailable": 5387,
      "notes": 5388,
      "lid": 5389,
      "bubble": 5390,
      "eline": 5391,
      "wea": 5392,
      "redund": 5393,
      "cion": 5394,
      "selec": 5395,
      "fade": 5396,
      "parseexception": 5397,
      "themselves": 5398,
      "socks": 5399,
      "sense": 5400,
      "clustering": 5401,
      "libraries": 5402,
      "delayed": 5403,
      "happened": 5404,
      "discovered": 5405,
      "cloning": 5406,
      "diagnostic": 5407,
      "smooth": 5408,
      "invitation": 5409,
      "aren": 5410,
      "gray": 5411,
      "han": 5412,
      "nth": 5413,
      "ported": 5414,
      "thist": 5415,
      "consec": 5416,
      "semb": 5417,
      "unsuppor": 5418,
      "ric": 5419,
      "aper": 5420,
      "lient": 5421,
      "reporter": 5422,
      "defining": 5423,
      "anywhere": 5424,
      "prefixed": 5425,
      "bigger": 5426,
      "sink": 5427,
      "geometri": 5428,
      "cachedrowsetimpl": 5429,
      "executable": 5430,
      "aggregated": 5431,
      "scheduling": 5432,
      "subscriptions": 5433,
      "currence": 5434,
      "sensors": 5435,
      "affine": 5436,
      "airing": 5437,
      "existence": 5438,
      "inverted": 5439,
      "constrained": 5440,
      "fingerprint": 5441,
      "timeoutexception": 5442,
      "consecutive": 5443,
      "geometries": 5444,
      "gas": 5445,
      "hits": 5446,
      "ked": 5447,
      "reused": 5448,
      "react": 5449,
      "onse": 5450,
      "towards": 5451,
      "atter": 5452,
      "retr": 5453,
      "spans": 5454,
      "perman": 5455,
      "icious": 5456,
      "stateexception": 5457,
      "buffering": 5458,
      "partially": 5459,
      "typec": 5460,
      "econfig": 5461,
      "shapes": 5462,
      "modifying": 5463,
      "linearly": 5464,
      "walker": 5465,
      "estimates": 5466,
      "lazily": 5467,
      "interprets": 5468,
      "collapsed": 5469,
      "redirects": 5470,
      "isolated": 5471,
      "tobject": 5472,
      "spliterator": 5473,
      "bm": 5474,
      "lu": 5475,
      "mass": 5476,
      "psi": 5477,
      "uf": 5478,
      "thub": 5479,
      "third": 5480,
      "inactive": 5481,
      "tof": 5482,
      "toff": 5483,
      "cht": 5484,
      "ador": 5485,
      "gexception": 5486,
      "unce": 5487,
      "unwrap": 5488,
      "newer": 5489,
      "utter": 5490,
      "exper": 5491,
      "timeline": 5492,
      "targe": 5493,
      "printwriter": 5494,
      "labeled": 5495,
      "imported": 5496,
      "distances": 5497,
      "boundaries": 5498,
      "estimator": 5499,
      "assignments": 5500,
      "dynamically": 5501,
      "simulates": 5502,
      "ioexception": 5503,
      "decorates": 5504,
      "candidates": 5505,
      "detached": 5506,
      "malicious": 5507,
      "accuracy": 5508,
      "modulus": 5509,
      "palette": 5510,
      "dl": 5511,
      "eks": 5512,
      "lan": 5513,
      "prun": 5514,
      "ske": 5515,
      "xsd": 5516,
      "acted": 5517,
      "coin": 5518,
      "cosine": 5519,
      "ivers": 5520,
      "pot": 5521,
      "traces": 5522,
      "instancia": 5523,
      "peek": 5524,
      "shall": 5525,
      "keypair": 5526,
      "updater": 5527,
      "isting": 5528,
      "overwriting": 5529,
      "extraction": 5530,
      "bodies": 5531,
      "prototype": 5532,
      "allocator": 5533,
      "grace": 5534,
      "forwarded": 5535,
      "dispatches": 5536,
      "inflic": 5537,
      "ompo": 5538,
      "grant": 5539,
      "concatenation": 5540,
      "strips": 5541,
      "demographic": 5542,
      "conflict": 5543,
      "instrumentation": 5544,
      "cassandra": 5545,
      "predecess": 5546,
      "automaton": 5547,
      "lum": 5548,
      "resiz": 5549,
      "recurrence": 5550,
      "atlas": 5551,
      "unary": 5552,
      "compaction": 5553,
      "compared": 5554,
      "readonly": 5555,
      "keyspec": 5556,
      "expressed": 5557,
      "backtrace": 5558,
      "filed": 5559,
      "facing": 5560,
      "hots": 5561,
      "collision": 5562,
      "capable": 5563,
      "reques": 5564,
      "sequential": 5565,
      "scrollable": 5566,
      "relations": 5567,
      "algorithmexception": 5568,
      "factors": 5569,
      "carte": 5570,
      "green": 5571,
      "sharedpreferences": 5572,
      "optimize": 5573,
      "issued": 5574,
      "revert": 5575,
      "decrease": 5576,
      "grav": 5577,
      "photos": 5578,
      "clockwise": 5579,
      "reduction": 5580,
      "flips": 5581,
      "integrity": 5582,
      "nosuchalgorithmexception": 5583,
      "fxg": 5584,
      "pivot": 5585,
      "multiplexing": 5586,
      "revok": 5587,
      "finite": 5588,
      "gwt": 5589,
      "kick": 5590,
      "tur": 5591,
      "relay": 5592,
      "tipo": 5593,
      "assemb": 5594,
      "spo": 5595,
      "die": 5596,
      "gene": 5597,
      "imm": 5598,
      "modal": 5599,
      "connectionexception": 5600,
      "modelmbean": 5601,
      "fixes": 5602,
      "lined": 5603,
      "randomaccess": 5604,
      "presenter": 5605,
      "legacy": 5606,
      "ieve": 5607,
      "identityhashmap": 5608,
      "platforms": 5609,
      "ddl": 5610,
      "xpression": 5611,
      "presses": 5612,
      "cadena": 5613,
      "recognized": 5614,
      "federation": 5615,
      "sticky": 5616,
      "jackson": 5617,
      "kb": 5618,
      "pip": 5619,
      "vcenter": 5620,
      "yaml": 5621,
      "sting": 5622,
      "stale": 5623,
      "roper": 5624,
      "ading": 5625,
      "creature": 5626,
      "uncompressed": 5627,
      "unparented": 5628,
      "rights": 5629,
      "beta": 5630,
      "bern": 5631,
      "chance": 5632,
      "basis": 5633,
      "capit": 5634,
      "sqlin": 5635,
      "adapt": 5636,
      "videos": 5637,
      "originated": 5638,
      "turned": 5639,
      "busy": 5640,
      "measurement": 5641,
      "occurence": 5642,
      "neurons": 5643,
      "xslt": 5644,
      "propagate": 5645,
      "simulatemethod": 5646,
      "straight": 5647,
      "introduc": 5648,
      "interceptor": 5649,
      "formatexception": 5650,
      "cartesian": 5651,
      "egl": 5652,
      "hone": 5653,
      "lli": 5654,
      "mult": 5655,
      "resizes": 5656,
      "tedo": 5657,
      "aci": 5658,
      "contour": 5659,
      "sponse": 5660,
      "lout": 5661,
      "abling": 5662,
      "matically": 5663,
      "ames": 5664,
      "compli": 5665,
      "commandline": 5666,
      "pio": 5667,
      "scanned": 5668,
      "reasonable": 5669,
      "marshals": 5670,
      "sampled": 5671,
      "objectives": 5672,
      "cancellation": 5673,
      "referred": 5674,
      "eliminate": 5675,
      "reduces": 5676,
      "friends": 5677,
      "affected": 5678,
      "semantics": 5679,
      "scipio": 5680,
      "bernate": 5681,
      "hack": 5682,
      "hdfs": 5683,
      "med": 5684,
      "pdu": 5685,
      "xobject": 5686,
      "redo": 5687,
      "ords": 5688,
      "ecache": 5689,
      "demand": 5690,
      "meter": 5691,
      "usb": 5692,
      "unselected": 5693,
      "unresolved": 5694,
      "mpar": 5695,
      "abl": 5696,
      "assump": 5697,
      "sett": 5698,
      "sube": 5699,
      "itemstack": 5700,
      "determini": 5701,
      "manual": 5702,
      "graphs": 5703,
      "miters": 5704,
      "hibernate": 5705,
      "cubic": 5706,
      "accessing": 5707,
      "randomness": 5708,
      "implied": 5709,
      "sections": 5710,
      "reflects": 5711,
      "detecting": 5712,
      "functionalitytest": 5713,
      "delimiters": 5714,
      "considering": 5715,
      "framebodyt": 5716,
      "momentary": 5717,
      "ellipse": 5718,
      "preserve": 5719,
      "bloom": 5720,
      "unsupportedo": 5721,
      "ai": 5722,
      "fus": 5723,
      "jet": 5724,
      "wsp": 5725,
      "ero": 5726,
      "fier": 5727,
      "assets": 5728,
      "conet": 5729,
      "coden": 5730,
      "nex": 5731,
      "undefined": 5732,
      "loconet": 5733,
      "exposed": 5734,
      "uppor": 5735,
      "upgrad": 5736,
      "perationexception": 5737,
      "maven": 5738,
      "pem": 5739,
      "hasn": 5740,
      "defend": 5741,
      "charge": 5742,
      "hole": 5743,
      "rectangular": 5744,
      "portal": 5745,
      "verifier": 5746,
      "broken": 5747,
      "authorized": 5748,
      "slide": 5749,
      "pointers": 5750,
      "alphabe": 5751,
      "retrieving": 5752,
      "submitted": 5753,
      "renamed": 5754,
      "finalize": 5755,
      "gradle": 5756,
      "developer": 5757,
      "quartzscheduler": 5758,
      "hotspot": 5759,
      "ites": 5760,
      "lass": 5761,
      "nick": 5762,
      "tin": 5763,
      "twe": 5764,
      "tible": 5765,
      "nei": 5766,
      "promo": 5767,
      "bye": 5768,
      "potion": 5769,
      "izable": 5770,
      "alizes": 5771,
      "dataflavor": 5772,
      "worst": 5773,
      "corrup": 5774,
      "house": 5775,
      "omin": 5776,
      "sqlexception": 5777,
      "retrieval": 5778,
      "bling": 5779,
      "quota": 5780,
      "taxon": 5781,
      "incremental": 5782,
      "shifts": 5783,
      "objective": 5784,
      "roots": 5785,
      "balan": 5786,
      "aneous": 5787,
      "expire": 5788,
      "companyid": 5789,
      "infinity": 5790,
      "istener": 5791,
      "compliant": 5792,
      "unsupportedoperationexception": 5793,
      "gmt": 5794,
      "nec": 5795,
      "xisting": 5796,
      "oracle": 5797,
      "andon": 5798,
      "ada": 5799,
      "spread": 5800,
      "nodo": 5801,
      "abandon": 5802,
      "upported": 5803,
      "tau": 5804,
      "shares": 5805,
      "elem": 5806,
      "achieve": 5807,
      "timeouts": 5808,
      "colormodel": 5809,
      "stopwords": 5810,
      "mailbox": 5811,
      "horizontally": 5812,
      "experimental": 5813,
      "github": 5814,
      "propag": 5815,
      "permitted": 5816,
      "adjacent": 5817,
      "tangent": 5818,
      "quiet": 5819,
      "inflicted": 5820,
      "lumin": 5821,
      "cec": 5822,
      "hado": 5823,
      "kd": 5824,
      "though": 5825,
      "renew": 5826,
      "uru": 5827,
      "conjunction": 5828,
      "forced": 5829,
      "uploaded": 5830,
      "ameter": 5831,
      "assume": 5832,
      "election": 5833,
      "redraw": 5834,
      "layouts": 5835,
      "disc": 5836,
      "subarray": 5837,
      "subroutine": 5838,
      "depends": 5839,
      "likely": 5840,
      "aka": 5841,
      "years": 5842,
      "grantor": 5843,
      "delegating": 5844,
      "succeeded": 5845,
      "belonging": 5846,
      "profiles": 5847,
      "administrator": 5848,
      "gravity": 5849,
      "ix": 5850,
      "jni": 5851,
      "nc": 5852,
      "pg": 5853,
      "wel": 5854,
      "zuru": 5855,
      "ecutor": 5856,
      "concer": 5857,
      "forwar": 5858,
      "negate": 5859,
      "perspective": 5860,
      "pojo": 5861,
      "internet": 5862,
      "anymore": 5863,
      "prepar": 5864,
      "prexisting": 5865,
      "discre": 5866,
      "heur": 5867,
      "plug": 5868,
      "aught": 5869,
      "invari": 5870,
      "availability": 5871,
      "extent": 5872,
      "trade": 5873,
      "datos": 5874,
      "sqlstate": 5875,
      "snip": 5876,
      "dropped": 5877,
      "compareto": 5878,
      "periodically": 5879,
      "drm": 5880,
      "deployed": 5881,
      "measured": 5882,
      "inclusion": 5883,
      "lsb": 5884,
      "parenthe": 5885,
      "mechanisms": 5886,
      "replica": 5887,
      "accumulated": 5888,
      "ensuring": 5889,
      "strictly": 5890,
      "raised": 5891,
      "bracket": 5892,
      "agename": 5893,
      "upportedexception": 5894,
      "neither": 5895,
      "zurueck": 5896,
      "bs": 5897,
      "fu": 5898,
      "hmac": 5899,
      "lun": 5900,
      "rit": 5901,
      "rmi": 5902,
      "ulo": 5903,
      "titem": 5904,
      "alt": 5905,
      "isation": 5906,
      "deactivates": 5907,
      "contribu": 5908,
      "coords": 5909,
      "terator": 5910,
      "spacing": 5911,
      "noise": 5912,
      "abs": 5913,
      "permits": 5914,
      "agree": 5915,
      "submission": 5916,
      "nullable": 5917,
      "facts": 5918,
      "representations": 5919,
      "hashset": 5920,
      "rant": 5921,
      "mention": 5922,
      "openam": 5923,
      "rolling": 5924,
      "igfs": 5925,
      "registering": 5926,
      "presentation": 5927,
      "early": 5928,
      "earlier": 5929,
      "turnout": 5930,
      "repositories": 5931,
      "commons": 5932,
      "choices": 5933,
      "temporal": 5934,
      "sparql": 5935,
      "months": 5936,
      "severity": 5937,
      "descendants": 5938,
      "scratch": 5939,
      "demonstr": 5940,
      "mnemonic": 5941,
      "az": 5942,
      "ama": 5943,
      "fish": 5944,
      "ium": 5945,
      "ssa": 5946,
      "zation": 5947,
      "accounts": 5948,
      "cons": 5949,
      "conform": 5950,
      "covered": 5951,
      "forbid": 5952,
      "chen": 5953,
      "advice": 5954,
      "exha": 5955,
      "door": 5956,
      "dopost": 5957,
      "icle": 5958,
      "elevation": 5959,
      "plans": 5960,
      "anym": 5961,
      "validating": 5962,
      "finally": 5963,
      "filte": 5964,
      "filen": 5965,
      "tablemodel": 5966,
      "dateformat": 5967,
      "lastic": 5968,
      "denomin": 5969,
      "cycles": 5970,
      "summ": 5971,
      "tics": 5972,
      "necessarily": 5973,
      "originating": 5974,
      "mutablebiginteger": 5975,
      "dragged": 5976,
      "measures": 5977,
      "publishes": 5978,
      "gibt": 5979,
      "software": 5980,
      "dominance": 5981,
      "marketplace": 5982,
      "logarithm": 5983,
      "came": 5984,
      "nue": 5985,
      "insets": 5986,
      "espec": 5987,
      "atever": 5988,
      "accounting": 5989,
      "nets": 5990,
      "uninstall": 5991,
      "whatever": 5992,
      "rency": 5993,
      "elemen": 5994,
      "pagin": 5995,
      "painted": 5996,
      "viewh": 5997,
      "actionlistener": 5998,
      "transfor": 5999,
      "contextual": 6000,
      "fixup": 6001,
      "lengths": 6002,
      "printstream": 6003,
      "topics": 6004,
      "multiplied": 6005,
      "networks": 6006,
      "brings": 6007,
      "transientexception": 6008,
      "navigate": 6009,
      "validationexception": 6010,
      "inflate": 6011,
      "mesh": 6012,
      "varint": 6013,
      "spell": 6014,
      "reduced": 6015,
      "interpreted": 6016,
      "tunnel": 6017,
      "suspended": 6018,
      "transparency": 6019,
      "kilo": 6020,
      "descendant": 6021,
      "bidi": 6022,
      "exhausted": 6023,
      "aws": 6024,
      "bunch": 6025,
      "dados": 6026,
      "ee": 6027,
      "flex": 6028,
      "gsm": 6029,
      "mor": 6030,
      "mgr": 6031,
      "pun": 6032,
      "sit": 6033,
      "ono": 6034,
      "anager": 6035,
      "ese": 6036,
      "cour": 6037,
      "unchecked": 6038,
      "replay": 6039,
      "aliza": 6040,
      "commas": 6041,
      "facility": 6042,
      "shouldn": 6043,
      "dock": 6044,
      "graphically": 6045,
      "linking": 6046,
      "installation": 6047,
      "populating": 6048,
      "primitives": 6049,
      "samplemodel": 6050,
      "launched": 6051,
      "sslsocket": 6052,
      "spark": 6053,
      "criterion": 6054,
      "branches": 6055,
      "diagonal": 6056,
      "evic": 6057,
      "tabbedpane": 6058,
      "weather": 6059,
      "piped": 6060,
      "jetty": 6061,
      "jtext": 6062,
      "jud": 6063,
      "phi": 6064,
      "svm": 6065,
      "tmp": 6066,
      "vn": 6067,
      "voc": 6068,
      "rehashes": 6069,
      "stone": 6070,
      "orical": 6071,
      "fid": 6072,
      "fifo": 6073,
      "coales": 6074,
      "unbuffered": 6075,
      "odata": 6076,
      "ext": 6077,
      "expose": 6078,
      "umented": 6079,
      "objectanimator": 6080,
      "valueof": 6081,
      "outfile": 6082,
      "evol": 6083,
      "entitle": 6084,
      "subsequence": 6085,
      "subdirectories": 6086,
      "attributevalue": 6087,
      "posite": 6088,
      "delegation": 6089,
      "ively": 6090,
      "iterative": 6091,
      "grouped": 6092,
      "stacks": 6093,
      "rectangles": 6094,
      "nonce": 6095,
      "identification": 6096,
      "relement": 6097,
      "menuitem": 6098,
      "cluste": 6099,
      "solves": 6100,
      "factories": 6101,
      "webapp": 6102,
      "escaper": 6103,
      "datasets": 6104,
      "lexico": 6105,
      "derivative": 6106,
      "linkedhashmap": 6107,
      "dataty": 6108,
      "vars": 6109,
      "interpolates": 6110,
      "efficiently": 6111,
      "interrupts": 6112,
      "uffer": 6113,
      "objecti": 6114,
      "quickly": 6115,
      "referral": 6116,
      "dcc": 6117,
      "messaged": 6118,
      "violation": 6119,
      "accurate": 6120,
      "xmpp": 6121,
      "utputstream": 6122,
      "decomposition": 6123,
      "denominator": 6124,
      "centers": 6125,
      "ii": 6126,
      "ially": 6127,
      "ji": 6128,
      "nl": 6129,
      "night": 6130,
      "ore": 6131,
      "sable": 6132,
      "thon": 6133,
      "tein": 6134,
      "anti": 6135,
      "tient": 6136,
      "leak": 6137,
      "sell": 6138,
      "chrome": 6139,
      "wide": 6140,
      "lots": 6141,
      "mpeg": 6142,
      "species": 6143,
      "moun": 6144,
      "agger": 6145,
      "eventually": 6146,
      "baseline": 6147,
      "opposite": 6148,
      "positioned": 6149,
      "variation": 6150,
      "caption": 6151,
      "instantiating": 6152,
      "therefore": 6153,
      "scrap": 6154,
      "toplevel": 6155,
      "mono": 6156,
      "simplex": 6157,
      "epis": 6158,
      "flushed": 6159,
      "domains": 6160,
      "griddeployment": 6161,
      "failedexception": 6162,
      "javac": 6163,
      "initialisation": 6164,
      "fractional": 6165,
      "maintaining": 6166,
      "benchmark": 6167,
      "techni": 6168,
      "transientconnectionexception": 6169,
      "effectively": 6170,
      "lookandfeels": 6171,
      "zeichen": 6172,
      "utterance": 6173,
      "settled": 6174,
      "deterministic": 6175,
      "griddeploymentmode": 6176,
      "bif": 6177,
      "elastic": 6178,
      "jan": 6179,
      "thick": 6180,
      "inks": 6181,
      "uninstalls": 6182,
      "uninstallui": 6183,
      "ripp": 6184,
      "proc": 6185,
      "proces": 6186,
      "odd": 6187,
      "mosa": 6188,
      "rentry": 6189,
      "kept": 6190,
      "elect": 6191,
      "presponse": 6192,
      "backoff": 6193,
      "suppress": 6194,
      "cape": 6195,
      "grouping": 6196,
      "jsonvalue": 6197,
      "outof": 6198,
      "wind": 6199,
      "schemas": 6200,
      "ticket": 6201,
      "owning": 6202,
      "mouseevent": 6203,
      "invoice": 6204,
      "droptarget": 6205,
      "privatekey": 6206,
      "yourself": 6207,
      "tileentity": 6208,
      "overridable": 6209,
      "centroid": 6210,
      "traverses": 6211,
      "pseud": 6212,
      "dashed": 6213,
      "determinate": 6214,
      "brackets": 6215,
      "inspector": 6216,
      "supplemental": 6217,
      "advertising": 6218,
      "distinguished": 6219,
      "hadoop": 6220,
      "technique": 6221,
      "ripple": 6222,
      "mosaic": 6223,
      "fun": 6224,
      "jtable": 6225,
      "rdd": 6226,
      "zmat": 6227,
      "reve": 6228,
      "ream": 6229,
      "infile": 6230,
      "stder": 6231,
      "devent": 6232,
      "cos": 6233,
      "apis": 6234,
      "mount": 6235,
      "getf": 6236,
      "linestring": 6237,
      "codewords": 6238,
      "omial": 6239,
      "associations": 6240,
      "refs": 6241,
      "rolls": 6242,
      "standing": 6243,
      "conditionally": 6244,
      "tracked": 6245,
      "composition": 6246,
      "dividend": 6247,
      "treenode": 6248,
      "downloading": 6249,
      "literals": 6250,
      "declares": 6251,
      "loops": 6252,
      "published": 6253,
      "interruptible": 6254,
      "satisfies": 6255,
      "pieces": 6256,
      "privilege": 6257,
      "dhcp": 6258,
      "reconstitutes": 6259,
      "predecessor": 6260,
      "forwarding": 6261,
      "viewholder": 6262,
      "judge": 6263,
      "cd": 6264,
      "eight": 6265,
      "jn": 6266,
      "race": 6267,
      "smar": 6268,
      "smb": 6269,
      "txt": 6270,
      "tiff": 6271,
      "orandom": 6272,
      "often": 6273,
      "depart": 6274,
      "unid": 6275,
      "unsubscribe": 6276,
      "props": 6277,
      "vertically": 6278,
      "tested": 6279,
      "whichever": 6280,
      "entid": 6281,
      "configurable": 6282,
      "transmit": 6283,
      "arios": 6284,
      "serversocket": 6285,
      "argb": 6286,
      "song": 6287,
      "ustum": 6288,
      "infos": 6289,
      "httpentity": 6290,
      "sqlnon": 6291,
      "ticks": 6292,
      "sockets": 6293,
      "prepends": 6294,
      "distributions": 6295,
      "translated": 6296,
      "programmatically": 6297,
      "timestamps": 6298,
      "directions": 6299,
      "exportmask": 6300,
      "interpolated": 6301,
      "transpose": 6302,
      "traversing": 6303,
      "frustum": 6304,
      "animatable": 6305,
      "conflicts": 6306,
      "inheritance": 6307,
      "kills": 6308,
      "discarded": 6309,
      "rejected": 6310,
      "nbsp": 6311,
      "clusterer": 6312,
      "pseudorandom": 6313,
      "cmd": 6314,
      "dx": 6315,
      "eval": 6316,
      "faster": 6317,
      "ities": 6318,
      "ln": 6319,
      "pid": 6320,
      "rtp": 6321,
      "slic": 6322,
      "uary": 6323,
      "reconnect": 6324,
      "inden": 6325,
      "tel": 6326,
      "atable": 6327,
      "acon": 6328,
      "acer": 6329,
      "conti": 6330,
      "concise": 6331,
      "selement": 6332,
      "crea": 6333,
      "unbox": 6334,
      "spider": 6335,
      "uler": 6336,
      "lag": 6337,
      "pathe": 6338,
      "dsa": 6339,
      "predefined": 6340,
      "sys": 6341,
      "validated": 6342,
      "subsystem": 6343,
      "complement": 6344,
      "needing": 6345,
      "tpclient": 6346,
      "beancontexts": 6347,
      "fluid": 6348,
      "packagename": 6349,
      "mutual": 6350,
      "customize": 6351,
      "convenient": 6352,
      "verified": 6353,
      "painting": 6354,
      "fetched": 6355,
      "dispatched": 6356,
      "consuming": 6357,
      "touching": 6358,
      "sheets": 6359,
      "transpo": 6360,
      "cfml": 6361,
      "pads": 6362,
      "preserving": 6363,
      "privileged": 6364,
      "acknowled": 6365,
      "resizing": 6366,
      "stderr": 6367,
      "carg": 6368,
      "fb": 6369,
      "hover": 6370,
      "mech": 6371,
      "nio": 6372,
      "tone": 6373,
      "tlong": 6374,
      "wwn": 6375,
      "revo": 6376,
      "tep": 6377,
      "retries": 6378,
      "unparsed": 6379,
      "unbinds": 6380,
      "nomb": 6381,
      "bered": 6382,
      "probe": 6383,
      "uctor": 6384,
      "permis": 6385,
      "vere": 6386,
      "vipr": 6387,
      "interacting": 6388,
      "weeks": 6389,
      "keywords": 6390,
      "triples": 6391,
      "prng": 6392,
      "decay": 6393,
      "basically": 6394,
      "singular": 6395,
      "invis": 6396,
      "resour": 6397,
      "heading": 6398,
      "locals": 6399,
      "threadpool": 6400,
      "resourcebundle": 6401,
      "cubo": 6402,
      "statusbar": 6403,
      "fling": 6404,
      "acceler": 6405,
      "mutator": 6406,
      "edittext": 6407,
      "subscribes": 6408,
      "analyzes": 6409,
      "reflective": 6410,
      "aliases": 6411,
      "organizational": 6412,
      "encounter": 6413,
      "exponential": 6414,
      "clauses": 6415,
      "polling": 6416,
      "finalizes": 6417,
      "expires": 6418,
      "notsupportedexception": 6419,
      "announce": 6420,
      "thistyperef": 6421,
      "chttpclient": 6422,
      "nuevo": 6423,
      "nombre": 6424,
      "bread": 6425,
      "dv": 6426,
      "ib": 6427,
      "lm": 6428,
      "pure": 6429,
      "rating": 6430,
      "sld": 6431,
      "vc": 6432,
      "wl": 6433,
      "eclar": 6434,
      "convol": 6435,
      "newlines": 6436,
      "apon": 6437,
      "extre": 6438,
      "methodname": 6439,
      "objectname": 6440,
      "qued": 6441,
      "tenance": 6442,
      "olumn": 6443,
      "outstanding": 6444,
      "ultaneous": 6445,
      "weapon": 6446,
      "suites": 6447,
      "keyed": 6448,
      "commod": 6449,
      "few": 6450,
      "loaders": 6451,
      "logcat": 6452,
      "maintenance": 6453,
      "colli": 6454,
      "commandclass": 6455,
      "modbus": 6456,
      "offers": 6457,
      "searcher": 6458,
      "puede": 6459,
      "goal": 6460,
      "resolving": 6461,
      "solve": 6462,
      "greate": 6463,
      "synchronize": 6464,
      "indents": 6465,
      "predicates": 6466,
      "incrementing": 6467,
      "batches": 6468,
      "sales": 6469,
      "dentifier": 6470,
      "combinations": 6471,
      "exclusion": 6472,
      "easily": 6473,
      "picked": 6474,
      "concatenate": 6475,
      "exiftag": 6476,
      "quicksort": 6477,
      "simultaneous": 6478,
      "formulario": 6479,
      "particip": 6480,
      "implicitly": 6481,
      "scopes": 6482,
      "says": 6483,
      "participants": 6484,
      "datacenter": 6485,
      "gracefully": 6486,
      "cuboid": 6487,
      "bold": 6488,
      "ein": 6489,
      "mus": 6490,
      "paper": 6491,
      "sat": 6492,
      "udes": 6493,
      "recreate": 6494,
      "infer": 6495,
      "ange": 6496,
      "enqueues": 6497,
      "orth": 6498,
      "ofinstruction": 6499,
      "unlinks": 6500,
      "noop": 6501,
      "obli": 6502,
      "trap": 6503,
      "computer": 6504,
      "alizable": 6505,
      "trimm": 6506,
      "agents": 6507,
      "entially": 6508,
      "convertto": 6509,
      "oriented": 6510,
      "stacktrace": 6511,
      "opencv": 6512,
      "internalframe": 6513,
      "cutoff": 6514,
      "bars": 6515,
      "identificador": 6516,
      "implies": 6517,
      "icalendar": 6518,
      "summon": 6519,
      "algorithmpar": 6520,
      "patches": 6521,
      "svn": 6522,
      "chooses": 6523,
      "injected": 6524,
      "truncate": 6525,
      "propagation": 6526,
      "roundingmode": 6527,
      "adjusted": 6528,
      "enumerated": 6529,
      "permutes": 6530,
      "definitely": 6531,
      "discreti": 6532,
      "bled": 6533,
      "bene": 6534,
      "eq": 6535,
      "fro": 6536,
      "greg": 6537,
      "gau": 6538,
      "href": 6539,
      "lru": 6540,
      "osc": 6541,
      "ssh": 6542,
      "zwave": 6543,
      "recon": 6544,
      "inity": 6545,
      "eric": 6546,
      "toxml": 6547,
      "ased": 6548,
      "conj": 6549,
      "conforms": 6550,
      "severe": 6551,
      "spro": 6552,
      "spect": 6553,
      "sistan": 6554,
      "mpo": 6555,
      "prop": 6556,
      "perf": 6557,
      "ptions": 6558,
      "areas": 6559,
      "intercept": 6560,
      "regar": 6561,
      "regist": 6562,
      "confid": 6563,
      "iring": 6564,
      "openssl": 6565,
      "impro": 6566,
      "floor": 6567,
      "customized": 6568,
      "descriptions": 6569,
      "csr": 6570,
      "carri": 6571,
      "deserializer": 6572,
      "allocating": 6573,
      "visitors": 6574,
      "planet": 6575,
      "latlon": 6576,
      "decoration": 6577,
      "continues": 6578,
      "relationships": 6579,
      "regexp": 6580,
      "secretkey": 6581,
      "hyperbolic": 6582,
      "rootp": 6583,
      "increased": 6584,
      "rexpr": 6585,
      "suggestions": 6586,
      "ancesource": 6587,
      "typecode": 6588,
      "econfiguration": 6589,
      "luminancesource": 6590,
      "heuristic": 6591,
      "snippet": 6592,
      "filenames": 6593,
      "eclaration": 6594,
      "bagg": 6595,
      "bbles": 6596,
      "gun": 6597,
      "gpu": 6598,
      "hap": 6599,
      "ipl": 6600,
      "kr": 6601,
      "lr": 6602,
      "ndef": 6603,
      "oser": 6604,
      "pod": 6605,
      "rrd": 6606,
      "xecutor": 6607,
      "zen": 6608,
      "rearranges": 6609,
      "aled": 6610,
      "coup": 6611,
      "forma": 6612,
      "spot": 6613,
      "poole": 6614,
      "setf": 6615,
      "testcase": 6616,
      "intvector": 6617,
      "userid": 6618,
      "aging": 6619,
      "rega": 6620,
      "tively": 6621,
      "opt": 6622,
      "atives": 6623,
      "jsonobjects": 6624,
      "withoutmodifiers": 6625,
      "ocsp": 6626,
      "sqrt": 6627,
      "partner": 6628,
      "tablec": 6629,
      "swf": 6630,
      "analyze": 6631,
      "editors": 6632,
      "dragsour": 6633,
      "breakpoints": 6634,
      "bookmarks": 6635,
      "observation": 6636,
      "grants": 6637,
      "concatenated": 6638,
      "typerefwithoutmodifiers": 6639,
      "shadows": 6640,
      "symbolic": 6641,
      "concurrencylevel": 6642,
      "inflates": 6643,
      "simplify": 6644,
      "recursion": 6645,
      "arrives": 6646,
      "money": 6647,
      "assumption": 6648,
      "invisible": 6649,
      "rootpane": 6650,
      "dri": 6651,
      "mue": 6652,
      "nection": 6653,
      "tstruct": 6654,
      "wish": 6655,
      "think": 6656,
      "resid": 6657,
      "retention": 6658,
      "indirect": 6659,
      "onent": 6660,
      "alters": 6661,
      "ised": 6662,
      "leap": 6663,
      "conect": 6664,
      "terra": 6665,
      "adder": 6666,
      "veh": 6667,
      "oldest": 6668,
      "boss": 6669,
      "soon": 6670,
      "gency": 6671,
      "rowindex": 6672,
      "confir": 6673,
      "contenthandler": 6674,
      "propertyvalues": 6675,
      "propertychange": 6676,
      "variate": 6677,
      "collator": 6678,
      "tailer": 6679,
      "htt": 6680,
      "threadpoole": 6681,
      "fai": 6682,
      "framebuffer": 6683,
      "ordinate": 6684,
      "edition": 6685,
      "sometimes": 6686,
      "ignite": 6687,
      "conventions": 6688,
      "remotely": 6689,
      "casting": 6690,
      "metap": 6691,
      "xyz": 6692,
      "borders": 6693,
      "protocols": 6694,
      "induc": 6695,
      "covers": 6696,
      "guous": 6697,
      "busqued": 6698,
      "mediafile": 6699,
      "mbeanserver": 6700,
      "interpolate": 6701,
      "halve": 6702,
      "quickadapter": 6703,
      "affinity": 6704,
      "animatorset": 6705,
      "excludes": 6706,
      "submitting": 6707,
      "accumulate": 6708,
      "retained": 6709,
      "python": 6710,
      "recalculates": 6711,
      "semicolon": 6712,
      "simplified": 6713,
      "punct": 6714,
      "contiguous": 6715,
      "converttotranslucent": 6716,
      "baggage": 6717,
      "ah": 6718,
      "bis": 6719,
      "cbc": 6720,
      "hes": 6721,
      "hints": 6722,
      "hbase": 6723,
      "jb": 6724,
      "jpa": 6725,
      "nm": 6726,
      "rely": 6727,
      "resized": 6728,
      "incorrect": 6729,
      "enforce": 6730,
      "took": 6731,
      "toutputstream": 6732,
      "unnecessary": 6733,
      "spl": 6734,
      "exposes": 6735,
      "obsole": 6736,
      "raf": 6737,
      "raise": 6738,
      "vest": 6739,
      "parties": 6740,
      "elector": 6741,
      "putting": 6742,
      "typeargument": 6743,
      "dataflow": 6744,
      "rection": 6745,
      "keyidentifier": 6746,
      "subnet": 6747,
      "listens": 6748,
      "overwrites": 6749,
      "overwritten": 6750,
      "characteriterator": 6751,
      "queryresult": 6752,
      "imageicon": 6753,
      "configurationerror": 6754,
      "openid": 6755,
      "databases": 6756,
      "factoryconfigurationerror": 6757,
      "managing": 6758,
      "curent": 6759,
      "fluent": 6760,
      "pie": 6761,
      "differ": 6762,
      "estado": 6763,
      "carry": 6764,
      "rotated": 6765,
      "grams": 6766,
      "supporting": 6767,
      "subscribed": 6768,
      "analytics": 6769,
      "numerator": 6770,
      "lexicon": 6771,
      "cleaned": 6772,
      "globally": 6773,
      "fetching": 6774,
      "temporarily": 6775,
      "jars": 6776,
      "optimal": 6777,
      "simpled": 6778,
      "conversions": 6779,
      "informed": 6780,
      "pressing": 6781,
      "trustmanager": 6782,
      "clazz": 6783,
      "injects": 6784,
      "capturedevice": 6785,
      "growing": 6786,
      "shorter": 6787,
      "emr": 6788,
      "subscribers": 6789,
      "suspends": 6790,
      "arithme": 6791,
      "archivador": 6792,
      "nanoseconds": 6793,
      "dark": 6794,
      "truncated": 6795,
      "redundant": 6796,
      "ameterspec": 6797,
      "concerning": 6798,
      "camel": 6799,
      "datatyp": 6800,
      "thickness": 6801,
      "confidence": 6802,
      "vehicle": 6803,
      "propertyvaluesholder": 6804,
      "durable": 6805,
      "jsr": 6806,
      "mur": 6807,
      "nfc": 6808,
      "pus": 6809,
      "please": 6810,
      "uim": 6811,
      "sts": 6812,
      "till": 6813,
      "toc": 6814,
      "ceil": 6815,
      "unload": 6816,
      "unbound": 6817,
      "news": 6818,
      "abler": 6819,
      "rawer": 6820,
      "trad": 6821,
      "mathe": 6822,
      "textures": 6823,
      "desel": 6824,
      "lays": 6825,
      "evid": 6826,
      "prefs": 6827,
      "indexof": 6828,
      "indexoutof": 6829,
      "locking": 6830,
      "passive": 6831,
      "pathname": 6832,
      "querying": 6833,
      "irc": 6834,
      "jsonexception": 6835,
      "multivariate": 6836,
      "lengine": 6837,
      "markdown": 6838,
      "otfoundexception": 6839,
      "presents": 6840,
      "pooling": 6841,
      "ourselves": 6842,
      "simplelog": 6843,
      "screenshot": 6844,
      "boundsexception": 6845,
      "clickable": 6846,
      "lexer": 6847,
      "splitpane": 6848,
      "talk": 6849,
      "browse": 6850,
      "illegalstateexception": 6851,
      "criterium": 6852,
      "emitted": 6853,
      "hyph": 6854,
      "intents": 6855,
      "migrate": 6856,
      "encapsulated": 6857,
      "marshalled": 6858,
      "computational": 6859,
      "overlapping": 6860,
      "proxies": 6861,
      "decreases": 6862,
      "sanity": 6863,
      "ncname": 6864,
      "agreement": 6865,
      "demonstrates": 6866,
      "fidprotocol": 6867,
      "jndi": 6868,
      "greatest": 6869,
      "music": 6870,
      "threadpoolexecutor": 6871,
      "failover": 6872,
      "indexoutofboundsexception": 6873,
      "aion": 6874,
      "fci": 6875,
      "iti": 6876,
      "vcf": 6877,
      "xm": 6878,
      "ym": 6879,
      "inic": 6880,
      "anel": 6881,
      "acte": 6882,
      "actical": 6883,
      "strong": 6884,
      "ung": 6885,
      "spline": 6886,
      "apr": 6887,
      "absent": 6888,
      "versa": 6889,
      "polar": 6890,
      "addr": 6891,
      "dip": 6892,
      "nodeid": 6893,
      "defaultvalue": 6894,
      "practical": 6895,
      "actionbar": 6896,
      "signify": 6897,
      "formatters": 6898,
      "modulo": 6899,
      "counted": 6900,
      "orian": 6901,
      "treebank": 6902,
      "helps": 6903,
      "abledouble": 6904,
      "cuts": 6905,
      "texted": 6906,
      "particles": 6907,
      "standar": 6908,
      "failures": 6909,
      "sumer": 6910,
      "transforming": 6911,
      "scrollpane": 6912,
      "cash": 6913,
      "metal": 6914,
      "great": 6915,
      "attan": 6916,
      "bring": 6917,
      "ruleset": 6918,
      "expanding": 6919,
      "books": 6920,
      "speak": 6921,
      "echange": 6922,
      "titles": 6923,
      "alerts": 6924,
      "referring": 6925,
      "trailer": 6926,
      "anchors": 6927,
      "shortest": 6928,
      "sugges": 6929,
      "neighbo": 6930,
      "observe": 6931,
      "respectively": 6932,
      "scoped": 6933,
      "crawl": 6934,
      "participant": 6935,
      "amazon": 6936,
      "january": 6937,
      "slices": 6938,
      "gregorian": 6939,
      "regarding": 6940,
      "obsolete": 6941,
      "evidence": 6942,
      "aw": 6943,
      "fence": 6944,
      "iri": 6945,
      "jrootpane": 6946,
      "liv": 6947,
      "padded": 6948,
      "tts": 6949,
      "ynam": 6950,
      "reli": 6951,
      "reside": 6952,
      "indeterminate": 6953,
      "stress": 6954,
      "accommod": 6955,
      "consul": 6956,
      "coer": 6957,
      "usual": 6958,
      "resul": 6959,
      "proof": 6960,
      "dice": 6961,
      "lled": 6962,
      "datap": 6963,
      "dataexception": 6964,
      "ffff": 6965,
      "propertyname": 6966,
      "opacity": 6967,
      "facade": 6968,
      "indica": 6969,
      "menus": 6970,
      "wakes": 6971,
      "downscaling": 6972,
      "syntac": 6973,
      "minec": 6974,
      "extending": 6975,
      "sqlout": 6976,
      "floa": 6977,
      "multiplying": 6978,
      "dao": 6979,
      "sums": 6980,
      "scrolled": 6981,
      "incremented": 6982,
      "transactional": 6983,
      "clasifi": 6984,
      "maybe": 6985,
      "geometric": 6986,
      "paneitem": 6987,
      "cleaning": 6988,
      "languages": 6989,
      "providerexception": 6990,
      "aggregator": 6991,
      "ciphertext": 6992,
      "spannable": 6993,
      "recycle": 6994,
      "guarantee": 6995,
      "annotate": 6996,
      "armor": 6997,
      "octets": 6998,
      "prompts": 6999,
      "beancontextchild": 7000,
      "inflated": 7001,
      "sampler": 7002,
      "shuffle": 7003,
      "echooser": 7004,
      "twice": 7005,
      "typingstrategy": 7006,
      "retrans": 7007,
      "expert": 7008,
      "corrupted": 7009,
      "vocab": 7010,
      "entitlement": 7011,
      "smart": 7012,
      "indented": 7013,
      "drill": 7014,
      "muestra": 7015,
      "conectado": 7016,
      "punctuation": 7017,
      "sqloutputimpl": 7018,
      "ajax": 7019,
      "crt": 7020,
      "fp": 7021,
      "hare": 7022,
      "jspinner": 7023,
      "lz": 7024,
      "pare": 7025,
      "tter": 7026,
      "wms": 7027,
      "stay": 7028,
      "erase": 7029,
      "aring": 7030,
      "arrange": 7031,
      "atar": 7032,
      "leton": 7033,
      "concat": 7034,
      "forcing": 7035,
      "wik": 7036,
      "unbounded": 7037,
      "bee": 7038,
      "lie": 7039,
      "expo": 7040,
      "aborted": 7041,
      "specifically": 7042,
      "upstream": 7043,
      "movi": 7044,
      "ender": 7045,
      "avatar": 7046,
      "subspace": 7047,
      "subtrees": 7048,
      "attributeset": 7049,
      "tification": 7050,
      "actu": 7051,
      "bitwise": 7052,
      "orities": 7053,
      "contra": 7054,
      "localhost": 7055,
      "versioned": 7056,
      "cuda": 7057,
      "certs": 7058,
      "storages": 7059,
      "sslengine": 7060,
      "feeds": 7061,
      "mutations": 7062,
      "osm": 7063,
      "activemq": 7064,
      "adaptor": 7065,
      "renderable": 7066,
      "chunked": 7067,
      "swagger": 7068,
      "crypt": 7069,
      "echart": 7070,
      "controlled": 7071,
      "partitioning": 7072,
      "central": 7073,
      "consumers": 7074,
      "organisation": 7075,
      "specifications": 7076,
      "heapify": 7077,
      "subtraction": 7078,
      "distributedsystem": 7079,
      "walking": 7080,
      "knows": 7081,
      "isochronology": 7082,
      "intersections": 7083,
      "thresholds": 7084,
      "watched": 7085,
      "recycles": 7086,
      "affect": 7087,
      "broadcasts": 7088,
      "maintained": 7089,
      "datagramsocket": 7090,
      "truncates": 7091,
      "integration": 7092,
      "existent": 7093,
      "shorten": 7094,
      "dominated": 7095,
      "campos": 7096,
      "zzy": 7097,
      "inlined": 7098,
      "overlaps": 7099,
      "shuffling": 7100,
      "scripting": 7101,
      "decreased": 7102,
      "imagecon": 7103,
      "silent": 7104,
      "provisioning": 7105,
      "truncating": 7106,
      "revoked": 7107,
      "tweet": 7108,
      "minecraft": 7109,
      "vocabul": 7110,
      "blow": 7111,
      "cn": 7112,
      "craf": 7113,
      "glo": 7114,
      "jimple": 7115,
      "pv": 7116,
      "ptive": 7117,
      "pstack": 7118,
      "tray": 7119,
      "vy": 7120,
      "vcard": 7121,
      "xhtml": 7122,
      "zing": 7123,
      "ente": 7124,
      "altered": 7125,
      "chest": 7126,
      "nego": 7127,
      "unable": 7128,
      "unescapes": 7129,
      "nop": 7130,
      "proportion": 7131,
      "proxim": 7132,
      "protein": 7133,
      "odes": 7134,
      "illed": 7135,
      "setbit": 7136,
      "quar": 7137,
      "inits": 7138,
      "typevariable": 7139,
      "recorder": 7140,
      "street": 7141,
      "generally": 7142,
      "signall": 7143,
      "bases": 7144,
      "progressively": 7145,
      "threaded": 7146,
      "doubled": 7147,
      "synth": 7148,
      "cud": 7149,
      "stopwatch": 7150,
      "ordinates": 7151,
      "iterators": 7152,
      "accel": 7153,
      "permissioncollection": 7154,
      "mergency": 7155,
      "entering": 7156,
      "celleditor": 7157,
      "geolocation": 7158,
      "sortedset": 7159,
      "vote": 7160,
      "directionality": 7161,
      "clipping": 7162,
      "csvreader": 7163,
      "recycled": 7164,
      "nibbles": 7165,
      "repeatedly": 7166,
      "blacklist": 7167,
      "considers": 7168,
      "establishes": 7169,
      "nbttag": 7170,
      "ancestors": 7171,
      "watermark": 7172,
      "nicely": 7173,
      "nickname": 7174,
      "course": 7175,
      "ynamic": 7176,
      "pstackx": 7177,
      "proximity": 7178,
      "bol": 7179,
      "craft": 7180,
      "gri": 7181,
      "hd": 7182,
      "hon": 7183,
      "ith": 7184,
      "jtextfield": 7185,
      "jboss": 7186,
      "pon": 7187,
      "rcs": 7188,
      "wm": 7189,
      "yield": 7190,
      "infra": 7191,
      "ery": 7192,
      "eco": 7193,
      "ecomp": 7194,
      "asm": 7195,
      "acc": 7196,
      "adas": 7197,
      "ivate": 7198,
      "unmarshal": 7199,
      "promis": 7200,
      "obb": 7201,
      "byref": 7202,
      "dos": 7203,
      "tedata": 7204,
      "shield": 7205,
      "locators": 7206,
      "classfile": 7207,
      "keymap": 7208,
      "aged": 7209,
      "agrega": 7210,
      "viewpager": 7211,
      "subcommand": 7212,
      "substrings": 7213,
      "whitespaces": 7214,
      "configur": 7215,
      "suppressed": 7216,
      "transmission": 7217,
      "imagin": 7218,
      "stemmer": 7219,
      "longhashmap": 7220,
      "requiring": 7221,
      "underline": 7222,
      "scatter": 7223,
      "prefixing": 7224,
      "approach": 7225,
      "bodydecl": 7226,
      "finishing": 7227,
      "virtualpool": 7228,
      "aggregates": 7229,
      "measuring": 7230,
      "todos": 7231,
      "shair": 7232,
      "lazypstackx": 7233,
      "accumulator": 7234,
      "dismissed": 7235,
      "arrive": 7236,
      "shorthand": 7237,
      "accepting": 7238,
      "harves": 7239,
      "crosshair": 7240,
      "differences": 7241,
      "skeleton": 7242,
      "kilobytes": 7243,
      "evolution": 7244,
      "lexicographically": 7245,
      "episode": 7246,
      "convolution": 7247,
      "confirms": 7248,
      "consulta": 7249,
      "pareto": 7250,
      "imageconsumer": 7251,
      "bra": 7252,
      "dan": 7253,
      "ered": 7254,
      "fn": 7255,
      "fan": 7256,
      "gd": 7257,
      "gson": 7258,
      "jlist": 7259,
      "knn": 7260,
      "mapp": 7261,
      "pting": 7262,
      "rx": 7263,
      "tdouble": 7264,
      "ino": 7265,
      "tice": 7266,
      "meant": 7267,
      "concept": 7268,
      "chi": 7269,
      "credit": 7270,
      "geten": 7271,
      "unloaded": 7272,
      "sibling": 7273,
      "exer": 7274,
      "triv": 7275,
      "maker": 7276,
      "outcome": 7277,
      "alizing": 7278,
      "datainputstream": 7279,
      "datawrapper": 7280,
      "getters": 7281,
      "soun": 7282,
      "solid": 7283,
      "mapbean": 7284,
      "calc": 7285,
      "corpus": 7286,
      "equations": 7287,
      "ledger": 7288,
      "iterating": 7289,
      "bins": 7290,
      "binomial": 7291,
      "posted": 7292,
      "completable": 7293,
      "rolled": 7294,
      "timers": 7295,
      "storable": 7296,
      "someone": 7297,
      "north": 7298,
      "medium": 7299,
      "maximal": 7300,
      "tabular": 7301,
      "attempting": 7302,
      "invalidated": 7303,
      "compiling": 7304,
      "switchpreference": 7305,
      "bias": 7306,
      "purges": 7307,
      "simulated": 7308,
      "zoomed": 7309,
      "surrounding": 7310,
      "deployable": 7311,
      "projected": 7312,
      "ownership": 7313,
      "adjustment": 7314,
      "figures": 7315,
      "drawerbuilder": 7316,
      "midi": 7317,
      "persons": 7318,
      "bandwidth": 7319,
      "xsltelement": 7320,
      "recognizer": 7321,
      "games": 7322,
      "parameterizedtyperef": 7323,
      "captures": 7324,
      "raising": 7325,
      "grabpoint": 7326,
      "twitter": 7327,
      "emulated": 7328,
      "vetoable": 7329,
      "lua": 7330,
      "randomaccessfile": 7331,
      "sqlinputimpl": 7332,
      "invariant": 7333,
      "forbidden": 7334,
      "objectidentifier": 7335,
      "revocation": 7336,
      "dvd": 7337,
      "simultaneously": 7338,
      "hessian": 7339,
      "splash": 7340,
      "uimanager": 7341,
      "vocabulary": 7342,
      "globe": 7343,
      "imaginary": 7344,
      "gml": 7345,
      "jtree": 7346,
      "jeditor": 7347,
      "jls": 7348,
      "kth": 7349,
      "mute": 7350,
      "ngram": 7351,
      "pit": 7352,
      "swe": 7353,
      "wk": 7354,
      "wan": 7355,
      "req": 7356,
      "restarted": 7357,
      "inorder": 7358,
      "env": 7359,
      "tial": 7360,
      "alg": 7361,
      "ats": 7362,
      "road": 7363,
      "aso": 7364,
      "conv": 7365,
      "unchanged": 7366,
      "abor": 7367,
      "illa": 7368,
      "bud": 7369,
      "matical": 7370,
      "settable": 7371,
      "vibr": 7372,
      "icc": 7373,
      "typeface": 7374,
      "maphandler": 7375,
      "requestparams": 7376,
      "disjunction": 7377,
      "whitelist": 7378,
      "pathiterator": 7379,
      "variabled": 7380,
      "omit": 7381,
      "searched": 7382,
      "fixme": 7383,
      "databuffer": 7384,
      "hello": 7385,
      "statuscode": 7386,
      "accesses": 7387,
      "denied": 7388,
      "mutabledouble": 7389,
      "correctness": 7390,
      "structured": 7391,
      "selections": 7392,
      "extras": 7393,
      "cascad": 7394,
      "became": 7395,
      "pushed": 7396,
      "swt": 7397,
      "composi": 7398,
      "supertype": 7399,
      "equivalence": 7400,
      "echeck": 7401,
      "refreshing": 7402,
      "persisten": 7403,
      "classifies": 7404,
      "squares": 7405,
      "breaker": 7406,
      "reaches": 7407,
      "accessexception": 7408,
      "contructor": 7409,
      "dismisses": 7410,
      "recognition": 7411,
      "tuner": 7412,
      "suspend": 7413,
      "inverts": 7414,
      "treats": 7415,
      "quotation": 7416,
      "denote": 7417,
      "denotes": 7418,
      "recalculate": 7419,
      "guesses": 7420,
      "preceding": 7421,
      "imagecache": 7422,
      "sootmethod": 7423,
      "permanently": 7424,
      "subexpression": 7425,
      "evicted": 7426,
      "registro": 7427,
      "latlonpoint": 7428,
      "metaphone": 7429,
      "hyphen": 7430,
      "aprivate": 7431,
      "cename": 7432,
      "cado": 7433,
      "eye": 7434,
      "euler": 7435,
      "gine": 7436,
      "hive": 7437,
      "jm": 7438,
      "jam": 7439,
      "jformatted": 7440,
      "jvms": 7441,
      "killed": 7442,
      "lename": 7443,
      "ost": 7444,
      "oma": 7445,
      "pul": 7446,
      "xa": 7447,
      "xstream": 7448,
      "xbm": 7449,
      "zag": 7450,
      "inthashmap": 7451,
      "onclick": 7452,
      "enger": 7453,
      "erro": 7454,
      "orbit": 7455,
      "allot": 7456,
      "isk": 7457,
      "ises": 7458,
      "today": 7459,
      "attention": 7460,
      "lee": 7461,
      "fication": 7462,
      "deregister": 7463,
      "death": 7464,
      "unmatched": 7465,
      "unlocks": 7466,
      "why": 7467,
      "obfus": 7468,
      "ablec": 7469,
      "idx": 7470,
      "pothe": 7471,
      "callers": 7472,
      "interact": 7473,
      "charseq": 7474,
      "subquery": 7475,
      "eventlistener": 7476,
      "passwords": 7477,
      "priced": 7478,
      "inese": 7479,
      "descriptive": 7480,
      "stemmed": 7481,
      "intelli": 7482,
      "asked": 7483,
      "systemmember": 7484,
      "popping": 7485,
      "localdate": 7486,
      "underscore": 7487,
      "sqlite": 7488,
      "recordbuilder": 7489,
      "guidel": 7490,
      "tabler": 7491,
      "radial": 7492,
      "carbon": 7493,
      "econnection": 7494,
      "follower": 7495,
      "safety": 7496,
      "audits": 7497,
      "shapefile": 7498,
      "securityexception": 7499,
      "uniquely": 7500,
      "purge": 7501,
      "firewall": 7502,
      "picks": 7503,
      "involved": 7504,
      "eligi": 7505,
      "hypothe": 7506,
      "watcher": 7507,
      "criticality": 7508,
      "certstore": 7509,
      "slashes": 7510,
      "aclass": 7511,
      "learn": 7512,
      "elliptical": 7513,
      "profiling": 7514,
      "omgraphiclist": 7515,
      "kinds": 7516,
      "italic": 7517,
      "tlv": 7518,
      "fuzzy": 7519,
      "elasticsearch": 7520,
      "arithmetic": 7521,
      "clasificador": 7522,
      "movies": 7523,
      "soundex": 7524,
      "jformattedtextfield": 7525,
      "xbmc": 7526,
      "guidelines": 7527,
      "dag": 7528,
      "fec": 7529,
      "fash": 7530,
      "hr": 7531,
      "jit": 7532,
      "jtabbedpane": 7533,
      "kn": 7534,
      "ntp": 7535,
      "rr": 7536,
      "rfidprotocol": 7537,
      "wb": 7538,
      "za": 7539,
      "thered": 7540,
      "intr": 7541,
      "instream": 7542,
      "anode": 7543,
      "enclose": 7544,
      "enabling": 7545,
      "seper": 7546,
      "witch": 7547,
      "nesting": 7548,
      "usion": 7549,
      "undirected": 7550,
      "ifier": 7551,
      "odb": 7552,
      "rag": 7553,
      "dog": 7554,
      "tension": 7555,
      "testream": 7556,
      "curl": 7557,
      "inear": 7558,
      "chararray": 7559,
      "genome": 7560,
      "defaul": 7561,
      "preset": 7562,
      "logrecord": 7563,
      "express": 7564,
      "cim": 7565,
      "corpor": 7566,
      "docvalues": 7567,
      "manu": 7568,
      "nexttoken": 7569,
      "serializing": 7570,
      "sessionid": 7571,
      "ources": 7572,
      "daily": 7573,
      "posting": 7574,
      "zeroes": 7575,
      "approval": 7576,
      "socke": 7577,
      "evaluating": 7578,
      "adapts": 7579,
      "savepoint": 7580,
      "website": 7581,
      "stepped": 7582,
      "selectable": 7583,
      "fullscreen": 7584,
      "naive": 7585,
      "executions": 7586,
      "joining": 7587,
      "turnouts": 7588,
      "launching": 7589,
      "expandable": 7590,
      "firework": 7591,
      "zooming": 7592,
      "transferable": 7593,
      "optimizations": 7594,
      "eventhandler": 7595,
      "validators": 7596,
      "injector": 7597,
      "marshalling": 7598,
      "substitutes": 7599,
      "exceeds": 7600,
      "replicated": 7601,
      "prettyprinted": 7602,
      "integral": 7603,
      "renaming": 7604,
      "compressor": 7605,
      "messagedi": 7606,
      "collecting": 7607,
      "expectation": 7608,
      "spawned": 7609,
      "privileges": 7610,
      "formalparameter": 7611,
      "adjacency": 7612,
      "gained": 7613,
      "reconstitute": 7614,
      "externally": 7615,
      "resumed": 7616,
      "vnx": 7617,
      "induced": 7618,
      "crafting": 7619,
      "asoci": 7620,
      "fashion": 7621,
      "bat": 7622,
      "cts": 7623,
      "cmp": 7624,
      "eine": 7625,
      "qty": 7626,
      "tm": 7627,
      "von": 7628,
      "zig": 7629,
      "remin": 7630,
      "revent": 7631,
      "ert": 7632,
      "altitude": 7633,
      "atri": 7634,
      "robot": 7635,
      "concurren": 7636,
      "chinese": 7637,
      "geode": 7638,
      "spher": 7639,
      "aby": 7640,
      "ident": 7641,
      "objectinputstream": 7642,
      "pois": 7643,
      "moused": 7644,
      "bump": 7645,
      "webe": 7646,
      "keymanager": 7647,
      "social": 7648,
      "aven": 7649,
      "logo": 7650,
      "overloads": 7651,
      "equence": 7652,
      "characteristic": 7653,
      "ranking": 7654,
      "nextint": 7655,
      "associating": 7656,
      "allowable": 7657,
      "activating": 7658,
      "dialogs": 7659,
      "goals": 7660,
      "thrott": 7661,
      "adapters": 7662,
      "senten": 7663,
      "caracte": 7664,
      "tomcat": 7665,
      "smtp": 7666,
      "analyzed": 7667,
      "masks": 7668,
      "dispatching": 7669,
      "comparisons": 7670,
      "seeds": 7671,
      "duplicated": 7672,
      "articles": 7673,
      "animating": 7674,
      "individuals": 7675,
      "midnight": 7676,
      "sparseintarray": 7677,
      "substitute": 7678,
      "consump": 7679,
      "insect": 7680,
      "spawns": 7681,
      "teleport": 7682,
      "medianode": 7683,
      "margins": 7684,
      "bayespm": 7685,
      "lands": 7686,
      "arrived": 7687,
      "precedence": 7688,
      "resuming": 7689,
      "lifetime": 7690,
      "permanent": 7691,
      "codenvy": 7692,
      "extreme": 7693,
      "gauge": 7694,
      "actualiza": 7695,
      "promises": 7696,
      "caracteres": 7697,
      "dable": 7698,
      "dted": 7699,
      "eh": 7700,
      "ejb": 7701,
      "fd": 7702,
      "fm": 7703,
      "jwt": 7704,
      "jinternalframe": 7705,
      "mbeans": 7706,
      "nature": 7707,
      "rhs": 7708,
      "vable": 7709,
      "vmax": 7710,
      "wd": 7711,
      "ylon": 7712,
      "theader": 7713,
      "reusing": 7714,
      "reactive": 7715,
      "recompose": 7716,
      "incorpor": 7717,
      "annex": 7718,
      "encloses": 7719,
      "alphan": 7720,
      "ism": 7721,
      "andler": 7722,
      "consci": 7723,
      "sealed": 7724,
      "ceylon": 7725,
      "territ": 7726,
      "withen": 7727,
      "ives": 7728,
      "gevent": 7729,
      "unset": 7730,
      "liest": 7731,
      "ification": 7732,
      "abbre": 7733,
      "methodtype": 7734,
      "dots": 7735,
      "serves": 7736,
      "ableexception": 7737,
      "boos": 7738,
      "listmodel": 7739,
      "repain": 7740,
      "defensive": 7741,
      "keyvalue": 7742,
      "keystroke": 7743,
      "exceptionbean": 7744,
      "prev": 7745,
      "disallow": 7746,
      "expensive": 7747,
      "decel": 7748,
      "corba": 7749,
      "suppli": 7750,
      "dict": 7751,
      "doctype": 7752,
      "ips": 7753,
      "informations": 7754,
      "multivalor": 7755,
      "portable": 7756,
      "cycl": 7757,
      "annotationlist": 7758,
      "convention": 7759,
      "occurring": 7760,
      "wrappers": 7761,
      "econtent": 7762,
      "assigning": 7763,
      "periods": 7764,
      "attachments": 7765,
      "controllers": 7766,
      "optimizer": 7767,
      "optimizing": 7768,
      "latin": 7769,
      "princip": 7770,
      "embedding": 7771,
      "gathered": 7772,
      "authenticates": 7773,
      "allocations": 7774,
      "interesting": 7775,
      "cloudlet": 7776,
      "messaging": 7777,
      "capturing": 7778,
      "invert": 7779,
      "repaints": 7780,
      "profiler": 7781,
      "flattens": 7782,
      "neighbors": 7783,
      "predictions": 7784,
      "unmarshalling": 7785,
      "acknowledge": 7786,
      "externalizable": 7787,
      "utilities": 7788,
      "fichero": 7789,
      "filewriterwithen": 7790,
      "grayscale": 7791,
      "jtextcomponent": 7792,
      "neighbour": 7793,
      "negoti": 7794,
      "acceleration": 7795,
      "trivial": 7796,
      "convex": 7797,
      "allotted": 7798,
      "alphanum": 7799,
      "conscious": 7800,
      "filewriterwithencoding": 7801,
      "bf": 7802,
      "bur": 7803,
      "cil": 7804,
      "droid": 7805,
      "emergency": 7806,
      "fq": 7807,
      "gp": 7808,
      "gmented": 7809,
      "gvt": 7810,
      "hull": 7811,
      "hang": 7812,
      "hub": 7813,
      "kkit": 7814,
      "lng": 7815,
      "vpool": 7816,
      "referent": 7817,
      "inspec": 7818,
      "indirectly": 7819,
      "incid": 7820,
      "ancho": 7821,
      "enchan": 7822,
      "aling": 7823,
      "edt": 7824,
      "atten": 7825,
      "assist": 7826,
      "accoun": 7827,
      "meet": 7828,
      "meets": 7829,
      "forget": 7830,
      "unbind": 7831,
      "spy": 7832,
      "idecimal": 7833,
      "ratic": 7834,
      "dim": 7835,
      "parity": 7836,
      "datam": 7837,
      "localization": 7838,
      "plural": 7839,
      "mapho": 7840,
      "stoken": 7841,
      "converters": 7842,
      "preorder": 7843,
      "logfile": 7844,
      "logistic": 7845,
      "subtitle": 7846,
      "fieldname": 7847,
      "declined": 7848,
      "representaion": 7849,
      "filechooser": 7850,
      "facilities": 7851,
      "queryexp": 7852,
      "omgraphics": 7853,
      "workers": 7854,
      "xmlstring": 7855,
      "nextlong": 7856,
      "firing": 7857,
      "referencing": 7858,
      "stacked": 7859,
      "locationpath": 7860,
      "sky": 7861,
      "marking": 7862,
      "receivers": 7863,
      "minid": 7864,
      "printf": 7865,
      "edia": 7866,
      "gos": 7867,
      "rollover": 7868,
      "invokedynamic": 7869,
      "abstractpaneitem": 7870,
      "hexidecimal": 7871,
      "geoloc": 7872,
      "grup": 7873,
      "notifying": 7874,
      "negated": 7875,
      "divided": 7876,
      "deeply": 7877,
      "predicted": 7878,
      "partitioner": 7879,
      "sslcontext": 7880,
      "invokeexpr": 7881,
      "statistical": 7882,
      "graphicsnode": 7883,
      "hooks": 7884,
      "generalpath": 7885,
      "inflater": 7886,
      "spanning": 7887,
      "adjustments": 7888,
      "echannel": 7889,
      "digital": 7890,
      "picking": 7891,
      "shifted": 7892,
      "requirement": 7893,
      "replicationserver": 7894,
      "gcm": 7895,
      "nibble": 7896,
      "quadratic": 7897,
      "differs": 7898,
      "mirrors": 7899,
      "efini": 7900,
      "violationexception": 7901,
      "redirectexception": 7902,
      "intercepts": 7903,
      "decided": 7904,
      "paste": 7905,
      "finest": 7906,
      "backslashes": 7907,
      "decompressing": 7908,
      "smoothly": 7909,
      "ompoly": 7910,
      "filedescriptor": 7911,
      "achievement": 7912,
      "mentioned": 7913,
      "summation": 7914,
      "bifunction": 7915,
      "saturation": 7916,
      "terrain": 7917,
      "mathematical": 7918,
      "abbrevi": 7919,
      "anchored": 7920,
      "ctr": 7921,
      "cated": 7922,
      "cau": 7923,
      "csn": 7924,
      "dm": 7925,
      "ease": 7926,
      "eting": 7927,
      "fg": 7928,
      "gue": 7929,
      "gone": 7930,
      "gss": 7931,
      "haven": 7932,
      "ios": 7933,
      "jtextarea": 7934,
      "ko": 7935,
      "mu": 7936,
      "nd": 7937,
      "ptic": 7938,
      "vary": 7939,
      "xpathe": 7940,
      "revalidate": 7941,
      "rebuilds": 7942,
      "reclaim": 7943,
      "inference": 7944,
      "stret": 7945,
      "eries": 7946,
      "esri": 7947,
      "ingredi": 7948,
      "roc": 7949,
      "robo": 7950,
      "unsized": 7951,
      "perpen": 7952,
      "pole": 7953,
      "vehi": 7954,
      "served": 7955,
      "repair": 7956,
      "locpathiterator": 7957,
      "triangles": 7958,
      "food": 7959,
      "disabling": 7960,
      "viewable": 7961,
      "facets": 7962,
      "subqueries": 7963,
      "ims": 7964,
      "corout": 7965,
      "overscroller": 7966,
      "existsexception": 7967,
      "dicular": 7968,
      "starttime": 7969,
      "optionpane": 7970,
      "workaround": 7971,
      "groupid": 7972,
      "afterwards": 7973,
      "searchable": 7974,
      "orial": 7975,
      "mite": 7976,
      "multisig": 7977,
      "downloader": 7978,
      "mappingtype": 7979,
      "infoexception": 7980,
      "synony": 7981,
      "initialia": 7982,
      "randomize": 7983,
      "randomizes": 7984,
      "cyclic": 7985,
      "flux": 7986,
      "packs": 7987,
      "layoutmanager": 7988,
      "sqltransientexception": 7989,
      "prepend": 7990,
      "castle": 7991,
      "invalidation": 7992,
      "geographic": 7993,
      "composes": 7994,
      "ieee": 7995,
      "genericvalue": 7996,
      "enemy": 7997,
      "polygons": 7998,
      "hiding": 7999,
      "declaredmodifiers": 8000,
      "lights": 8001,
      "exiting": 8002,
      "gcd": 8003,
      "personal": 8004,
      "undoable": 8005,
      "maintains": 8006,
      "extracting": 8007,
      "ttl": 8008,
      "reserve": 8009,
      "collapses": 8010,
      "retaining": 8011,
      "gaps": 8012,
      "activiti": 8013,
      "constituent": 8014,
      "instrumenting": 8015,
      "ields": 8016,
      "favorites": 8017,
      "semble": 8018,
      "didn": 8019,
      "develop": 8020,
      "serviced": 8021,
      "affinetransform": 8022,
      "introduced": 8023,
      "taxonom": 8024,
      "mgrs": 8025,
      "reveal": 8026,
      "coupling": 8027,
      "blowfish": 8028,
      "pitch": 8029,
      "errorexception": 8030,
      "eligible": 8031,
      "perpendicular": 8032,
      "vehicles": 8033,
      "aur": 8034,
      "bright": 8035,
      "cif": 8036,
      "dview": 8037,
      "dont": 8038,
      "east": 8039,
      "fading": 8040,
      "gable": 8041,
      "jscrollpane": 8042,
      "lv": 8043,
      "nap": 8044,
      "ots": 8045,
      "qos": 8046,
      "smi": 8047,
      "tary": 8048,
      "varray": 8049,
      "wap": 8050,
      "zy": 8051,
      "readd": 8052,
      "inti": 8053,
      "insi": 8054,
      "stu": 8055,
      "stics": 8056,
      "tied": 8057,
      "ecom": 8058,
      "ately": 8059,
      "meeting": 8060,
      "contex": 8061,
      "semapho": 8062,
      "fork": 8063,
      "advis": 8064,
      "unassigned": 8065,
      "unlike": 8066,
      "apro": 8067,
      "nox": 8068,
      "behalf": 8069,
      "prole": 8070,
      "oder": 8071,
      "exited": 8072,
      "abic": 8073,
      "valueexp": 8074,
      "docheck": 8075,
      "instancestate": 8076,
      "deroutputstream": 8077,
      "filefilter": 8078,
      "wered": 8079,
      "solo": 8080,
      "proved": 8081,
      "precomputed": 8082,
      "explain": 8083,
      "codebase": 8084,
      "correlated": 8085,
      "supply": 8086,
      "transcoded": 8087,
      "saver": 8088,
      "communities": 8089,
      "employ": 8090,
      "caps": 8091,
      "waiter": 8092,
      "wasn": 8093,
      "asking": 8094,
      "clearance": 8095,
      "clientinfoexception": 8096,
      "taskrunnable": 8097,
      "netty": 8098,
      "pairing": 8099,
      "folding": 8100,
      "dama": 8101,
      "lookahead": 8102,
      "sqlclientinfoexception": 8103,
      "publication": 8104,
      "diffi": 8105,
      "adaptive": 8106,
      "leftmost": 8107,
      "bigstring": 8108,
      "geohash": 8109,
      "geojson": 8110,
      "decimals": 8111,
      "chains": 8112,
      "quotient": 8113,
      "controlling": 8114,
      "triggering": 8115,
      "reflected": 8116,
      "worldwindow": 8117,
      "derivation": 8118,
      "remains": 8119,
      "datatag": 8120,
      "repeating": 8121,
      "generalexception": 8122,
      "walks": 8123,
      "estimation": 8124,
      "advancing": 8125,
      "freq": 8126,
      "pulling": 8127,
      "delegated": 8128,
      "framebodyts": 8129,
      "replicator": 8130,
      "meaningful": 8131,
      "instrumented": 8132,
      "pydml": 8133,
      "emoji": 8134,
      "uncaught": 8135,
      "ssotoken": 8136,
      "kinah": 8137,
      "monetary": 8138,
      "stdin": 8139,
      "targeted": 8140,
      "codename": 8141,
      "tinthash": 8142,
      "filterexpr": 8143,
      "httpresponse": 8144,
      "busqueda": 8145,
      "wikip": 8146,
      "variabledeclaration": 8147,
      "jamon": 8148,
      "hypothesis": 8149,
      "spherical": 8150,
      "development": 8151,
      "bg": 8152,
      "cen": 8153,
      "centi": 8154,
      "ham": 8155,
      "hort": 8156,
      "jip": 8157,
      "jmenu": 8158,
      "jpg": 8159,
      "mc": 8160,
      "mr": 8161,
      "mmessage": 8162,
      "sb": 8163,
      "sob": 8164,
      "tut": 8165,
      "thru": 8166,
      "recreates": 8167,
      "rewritten": 8168,
      "insn": 8169,
      "insufficient": 8170,
      "ancy": 8171,
      "enl": 8172,
      "engin": 8173,
      "ences": 8174,
      "tok": 8175,
      "artifi": 8176,
      "arabic": 8177,
      "depar": 8178,
      "terior": 8179,
      "unwraps": 8180,
      "loses": 8181,
      "libro": 8182,
      "prolog": 8183,
      "specexception": 8184,
      "abc": 8185,
      "ups": 8186,
      "upto": 8187,
      "methoda": 8188,
      "ils": 8189,
      "addi": 8190,
      "amble": 8191,
      "tentry": 8192,
      "datal": 8193,
      "datum": 8194,
      "eldest": 8195,
      "testupdate": 8196,
      "outfit": 8197,
      "messenger": 8198,
      "putfield": 8199,
      "typeargs": 8200,
      "apple": 8201,
      "recup": 8202,
      "numbered": 8203,
      "messagetype": 8204,
      "triangular": 8205,
      "layered": 8206,
      "startelement": 8207,
      "disposed": 8208,
      "validauthorization": 8209,
      "callee": 8210,
      "updatefunctionalitytest": 8211,
      "overloaded": 8212,
      "rance": 8213,
      "firm": 8214,
      "operational": 8215,
      "jsonml": 8216,
      "calculations": 8217,
      "hij": 8218,
      "deny": 8219,
      "seeks": 8220,
      "phon": 8221,
      "phil": 8222,
      "failing": 8223,
      "warm": 8224,
      "sqlfeature": 8225,
      "sqltransientconnectionexception": 8226,
      "separating": 8227,
      "screens": 8228,
      "solar": 8229,
      "rada": 8230,
      "authcontext": 8231,
      "bigquery": 8232,
      "dbf": 8233,
      "pushback": 8234,
      "delivers": 8235,
      "constraintviolationexception": 8236,
      "renderedimage": 8237,
      "asynchttpclient": 8238,
      "idea": 8239,
      "treating": 8240,
      "crls": 8241,
      "masking": 8242,
      "svc": 8243,
      "categorical": 8244,
      "shutting": 8245,
      "generalnames": 8246,
      "interpolating": 8247,
      "lattice": 8248,
      "interruptedexception": 8249,
      "procedures": 8250,
      "csvwriter": 8251,
      "selectors": 8252,
      "decorations": 8253,
      "watching": 8254,
      "artwork": 8255,
      "mockable": 8256,
      "quadrant": 8257,
      "bands": 8258,
      "verbosity": 8259,
      "replicas": 8260,
      "vendorcode": 8261,
      "rsaprivate": 8262,
      "telegram": 8263,
      "intersecting": 8264,
      "shuffles": 8265,
      "scriptelement": 8266,
      "attributedcharacteriterator": 8267,
      "silently": 8268,
      "microseconds": 8269,
      "occupied": 8270,
      "sqlinvalidauthorization": 8271,
      "quietly": 8272,
      "preparation": 8273,
      "conforming": 8274,
      "summoned": 8275,
      "carriage": 8276,
      "resident": 8277,
      "deselects": 8278,
      "poolingbytearrayoutputstream": 8279,
      "accommodate": 8280,
      "exposure": 8281,
      "signalled": 8282,
      "exercise": 8283,
      "jeditorpane": 8284,
      "reminder": 8285,
      "sentences": 8286,
      "consumption": 8287,
      "boosted": 8288,
      "proleptic": 8289,
      "wikipedia": 8290,
      "sqlfeaturenotsupportedexception": 8291,
      "sqlinvalidauthorizationspecexception": 8292,
      "aid": 8293,
      "ament": 8294,
      "arent": 8295,
      "crow": 8296,
      "etag": 8297,
      "gall": 8298,
      "jed": 8299,
      "km": 8300,
      "lab": 8301,
      "nine": 8302,
      "plots": 8303,
      "xform": 8304,
      "reed": 8305,
      "reward": 8306,
      "reacts": 8307,
      "ina": 8308,
      "eness": 8309,
      "enhan": 8310,
      "stages": 8311,
      "erial": 8312,
      "ateformat": 8313,
      "arff": 8314,
      "atype": 8315,
      "assemble": 8316,
      "destruc": 8317,
      "deregistered": 8318,
      "ando": 8319,
      "coap": 8320,
      "chrom": 8321,
      "gefa": 8322,
      "unity": 8323,
      "undoes": 8324,
      "loan": 8325,
      "limiter": 8326,
      "proposed": 8327,
      "bytestream": 8328,
      "uploading": 8329,
      "permite": 8330,
      "amexception": 8331,
      "instanceid": 8332,
      "pelled": 8333,
      "outbound": 8334,
      "keycode": 8335,
      "keyinfo": 8336,
      "charts": 8337,
      "matter": 8338,
      "foot": 8339,
      "preformatted": 8340,
      "discar": 8341,
      "viewed": 8342,
      "handed": 8343,
      "representative": 8344,
      "actionevent": 8345,
      "operates": 8346,
      "opposed": 8347,
      "errorcode": 8348,
      "hos": 8349,
      "optionid": 8350,
      "xmlvalidationexception": 8351,
      "imageaware": 8352,
      "tokenize": 8353,
      "openmap": 8354,
      "baseentry": 8355,
      "refine": 8356,
      "addressing": 8357,
      "octal": 8358,
      "offsetgrabpoint": 8359,
      "fold": 8360,
      "generators": 8361,
      "zeroed": 8362,
      "sqlsyntax": 8363,
      "sqltimeoutexception": 8364,
      "sqlintegrity": 8365,
      "gestures": 8366,
      "trigono": 8367,
      "rtl": 8368,
      "everyone": 8369,
      "swatch": 8370,
      "swapped": 8371,
      "canceling": 8372,
      "composing": 8373,
      "additionally": 8374,
      "negation": 8375,
      "mostly": 8376,
      "echar": 8377,
      "environments": 8378,
      "appearing": 8379,
      "touched": 8380,
      "popupmenu": 8381,
      "deployer": 8382,
      "loginexception": 8383,
      "freemarker": 8384,
      "evenly": 8385,
      "aliasing": 8386,
      "threebytes": 8387,
      "behaviors": 8388,
      "sorter": 8389,
      "frontier": 8390,
      "happening": 8391,
      "cleanups": 8392,
      "plaintext": 8393,
      "solrinput": 8394,
      "securerandom": 8395,
      "visualpanel": 8396,
      "rpclass": 8397,
      "expecting": 8398,
      "elliptic": 8399,
      "significance": 8400,
      "magical": 8401,
      "slope": 8402,
      "equipped": 8403,
      "glyphs": 8404,
      "dashboard": 8405,
      "diagnostics": 8406,
      "decreasing": 8407,
      "nntp": 8408,
      "differenti": 8409,
      "experim": 8410,
      "revokes": 8411,
      "fusion": 8412,
      "contribution": 8413,
      "especially": 8414,
      "cargo": 8415,
      "gpuimage": 8416,
      "dragsourced": 8417,
      "cascaded": 8418,
      "jmri": 8419,
      "battle": 8420,
      "initialiaze": 8421,
      "gefaeh": 8422,
      "sqlsyntaxerrorexception": 8423,
      "sqlintegrityconstraintviolationexception": 8424,
      "trigonometric": 8425,
      "await": 8426,
      "city": 8427,
      "cdf": 8428,
      "caught": 8429,
      "fsm": 8430,
      "gts": 8431,
      "ich": 8432,
      "ient": 8433,
      "jer": 8434,
      "jpanel": 8435,
      "nas": 8436,
      "nce": 8437,
      "pbe": 8438,
      "pable": 8439,
      "rss": 8440,
      "tld": 8441,
      "uu": 8442,
      "xac": 8443,
      "xcal": 8444,
      "xbl": 8445,
      "thin": 8446,
      "reconstructs": 8447,
      "inuse": 8448,
      "inferred": 8449,
      "enc": 8450,
      "eras": 8451,
      "tot": 8452,
      "atas": 8453,
      "fian": 8454,
      "crest": 8455,
      "unic": 8456,
      "unsafe": 8457,
      "unescape": 8458,
      "unlocked": 8459,
      "unlimited": 8460,
      "unconditionally": 8461,
      "approved": 8462,
      "utton": 8463,
      "lio": 8464,
      "metho": 8465,
      "peration": 8466,
      "pom": 8467,
      "poor": 8468,
      "stringtokenizer": 8469,
      "dio": 8470,
      "digraph": 8471,
      "instanceof": 8472,
      "former": 8473,
      "shak": 8474,
      "soid": 8475,
      "fee": 8476,
      "stock": 8477,
      "ague": 8478,
      "defaulting": 8479,
      "lognode": 8480,
      "parametro": 8481,
      "disjoint": 8482,
      "syll": 8483,
      "valida": 8484,
      "subsets": 8485,
      "lockable": 8486,
      "facture": 8487,
      "positional": 8488,
      "encodable": 8489,
      "hoc": 8490,
      "nextdouble": 8491,
      "offscreen": 8492,
      "treemap": 8493,
      "temper": 8494,
      "underscores": 8495,
      "clearbit": 8496,
      "sku": 8497,
      "skin": 8498,
      "miss": 8499,
      "somewhere": 8500,
      "alreadyexistsexception": 8501,
      "trait": 8502,
      "packing": 8503,
      "sqltransaction": 8504,
      "sqlrecoverable": 8505,
      "sqldataexception": 8506,
      "autom": 8507,
      "styl": 8508,
      "actively": 8509,
      "tabla": 8510,
      "bitmaps": 8511,
      "translating": 8512,
      "bundles": 8513,
      "kerber": 8514,
      "zipfian": 8515,
      "derives": 8516,
      "breaking": 8517,
      "duplex": 8518,
      "digests": 8519,
      "subtracting": 8520,
      "avoiding": 8521,
      "precalcul": 8522,
      "polynomials": 8523,
      "phaser": 8524,
      "sdcard": 8525,
      "csvparser": 8526,
      "objectexception": 8527,
      "samplesize": 8528,
      "freed": 8529,
      "updatable": 8530,
      "halfway": 8531,
      "topological": 8532,
      "quads": 8533,
      "gesturerecognizer": 8534,
      "questions": 8535,
      "ellipsoid": 8536,
      "rollbackexception": 8537,
      "violations": 8538,
      "recipients": 8539,
      "determinant": 8540,
      "flattened": 8541,
      "archives": 8542,
      "isolation": 8543,
      "substitutions": 8544,
      "nodesetdtm": 8545,
      "iana": 8546,
      "inspect": 8547,
      "attery": 8548,
      "balanced": 8549,
      "propagated": 8550,
      "coalescent": 8551,
      "acknowledged": 8552,
      "breadth": 8553,
      "frozen": 8554,
      "simpledateformat": 8555,
      "tradition": 8556,
      "floathashmap": 8557,
      "storagesystem": 8558,
      "wkt": 8559,
      "messagedigest": 8560,
      "zigzag": 8561,
      "landscape": 8562,
      "taxonomy": 8563,
      "semaphore": 8564,
      "recupera": 8565,
      "discarding": 8566,
      "sqltransactionrollbackexception": 8567,
      "sqlrecoverableexception": 8568,
      "awaits": 8569,
      "bing": 8570,
      "battery": 8571,
      "eobject": 8572,
      "earch": 8573,
      "hop": 8574,
      "itec": 8575,
      "jpassword": 8576,
      "jsplitpane": 8577,
      "ool": 8578,
      "pw": 8579,
      "rng": 8580,
      "sme": 8581,
      "tas": 8582,
      "vac": 8583,
      "ons": 8584,
      "ondestroy": 8585,
      "staging": 8586,
      "argexception": 8587,
      "five": 8588,
      "accent": 8589,
      "dequeue": 8590,
      "cohe": 8591,
      "fort": 8592,
      "ussion": 8593,
      "uncompress": 8594,
      "spent": 8595,
      "loco": 8596,
      "obst": 8597,
      "ides": 8598,
      "objectstream": 8599,
      "permutations": 8600,
      "percenti": 8601,
      "moid": 8602,
      "bust": 8603,
      "lling": 8604,
      "boun": 8605,
      "putall": 8606,
      "pag": 8607,
      "triang": 8608,
      "numberargexception": 8609,
      "dsap": 8610,
      "stateless": 8611,
      "pref": 8612,
      "preamble": 8613,
      "bytestring": 8614,
      "codepoint": 8615,
      "subdirectory": 8616,
      "undone": 8617,
      "finalized": 8618,
      "rapid": 8619,
      "queried": 8620,
      "architec": 8621,
      "draft": 8622,
      "tokenelement": 8623,
      "bitvector": 8624,
      "offheap": 8625,
      "throwables": 8626,
      "contentvalues": 8627,
      "appendable": 8628,
      "threadgroup": 8629,
      "multipolygon": 8630,
      "school": 8631,
      "downstream": 8632,
      "findbugs": 8633,
      "entityreference": 8634,
      "entityescaper": 8635,
      "texformula": 8636,
      "modifiable": 8637,
      "generatecertpath": 8638,
      "venue": 8639,
      "unitvalue": 8640,
      "autofocus": 8641,
      "customers": 8642,
      "abstraction": 8643,
      "amplit": 8644,
      "cartitem": 8645,
      "econstra": 8646,
      "minimize": 8647,
      "mutableint": 8648,
      "translations": 8649,
      "authenticationexception": 8650,
      "servletrequest": 8651,
      "echang": 8652,
      "historical": 8653,
      "classified": 8654,
      "machines": 8655,
      "visiting": 8656,
      "optimistic": 8657,
      "numericentityescaper": 8658,
      "delays": 8659,
      "replymarkup": 8660,
      "futures": 8661,
      "precise": 8662,
      "artist": 8663,
      "artifacts": 8664,
      "intersectiontypeexpression": 8665,
      "restrict": 8666,
      "continuation": 8667,
      "migrations": 8668,
      "aspects": 8669,
      "toasts": 8670,
      "poller": 8671,
      "typerefs": 8672,
      "hypergraph": 8673,
      "repeats": 8674,
      "existed": 8675,
      "weakhashmap": 8676,
      "dtmiterator": 8677,
      "evict": 8678,
      "reflecting": 8679,
      "gzipped": 8680,
      "expiry": 8681,
      "wrongnumberargexception": 8682,
      "eofexception": 8683,
      "authoritykeyidentifier": 8684,
      "pooledconnection": 8685,
      "gathering": 8686,
      "unmanagedvolume": 8687,
      "ficha": 8688,
      "flywheel": 8689,
      "partitionedregion": 8690,
      "seleccion": 8691,
      "upgraded": 8692,
      "propagates": 8693,
      "parentheses": 8694,
      "especifi": 8695,
      "sqlnontransientexception": 8696,
      "thistyperefnominal": 8697,
      "sprog": 8698,
      "tablecolumn": 8699,
      "infrastructure": 8700,
      "harvester": 8701,
      "xsltelementdef": 8702,
      "manufacture": 8703,
      "consciousness": 8704,
      "gossip": 8705,
      "efinition": 8706,
      "coroutine": 8707,
      "firmware": 8708,
      "gallery": 8709,
      "gefaehrd": 8710,
      "triangul": 8711,
      "autor": 8712,
      "bb": 8713,
      "burn": 8714,
      "bir": 8715,
      "cz": 8716,
      "cms": 8717,
      "din": 8718,
      "ell": 8719,
      "gm": 8720,
      "gres": 8721,
      "jre": 8722,
      "kon": 8723,
      "lc": 8724,
      "mip": 8725,
      "nts": 8726,
      "pca": 8727,
      "pong": 8728,
      "tank": 8729,
      "uret": 8730,
      "uagg": 8731,
      "vfs": 8732,
      "vital": 8733,
      "vlan": 8734,
      "analog": 8735,
      "ering": 8736,
      "eckey": 8737,
      "arms": 8738,
      "ofday": 8739,
      "rope": 8740,
      "sevent": 8741,
      "aders": 8742,
      "wird": 8743,
      "entype": 8744,
      "gelement": 8745,
      "getend": 8746,
      "uninstantiable": 8747,
      "behave": 8748,
      "liation": 8749,
      "methodv": 8750,
      "pow": 8751,
      "vey": 8752,
      "diges": 8753,
      "tengine": 8754,
      "laid": 8755,
      "izar": 8756,
      "outlier": 8757,
      "classify": 8758,
      "charbuffer": 8759,
      "logically": 8760,
      "lineup": 8761,
      "dispelled": 8762,
      "handshak": 8763,
      "subtypes": 8764,
      "subordinate": 8765,
      "transcoder": 8766,
      "opend": 8767,
      "positioning": 8768,
      "primar": 8769,
      "hashed": 8770,
      "documented": 8771,
      "omraster": 8772,
      "manages": 8773,
      "descripto": 8774,
      "tiling": 8775,
      "stackoverflow": 8776,
      "syncs": 8777,
      "forest": 8778,
      "statusdetail": 8779,
      "edirec": 8780,
      "applicationexceptionbean": 8781,
      "typical": 8782,
      "seems": 8783,
      "trains": 8784,
      "normals": 8785,
      "postgres": 8786,
      "distribute": 8787,
      "blan": 8788,
      "bigdata": 8789,
      "translator": 8790,
      "programmer": 8791,
      "switching": 8792,
      "vowel": 8793,
      "circles": 8794,
      "payments": 8795,
      "lightweight": 8796,
      "ubscri": 8797,
      "halt": 8798,
      "bigdecimals": 8799,
      "conversionexception": 8800,
      "lighting": 8801,
      "procedural": 8802,
      "phases": 8803,
      "mimetype": 8804,
      "grain": 8805,
      "pulls": 8806,
      "pullparser": 8807,
      "subclassed": 8808,
      "mocked": 8809,
      "frequencies": 8810,
      "choosing": 8811,
      "attacks": 8812,
      "stripped": 8813,
      "auditcommand": 8814,
      "expectations": 8815,
      "techno": 8816,
      "signerinformation": 8817,
      "kahan": 8818,
      "signum": 8819,
      "recommended": 8820,
      "denoting": 8821,
      "rejects": 8822,
      "spinning": 8823,
      "darker": 8824,
      "saniti": 8825,
      "examines": 8826,
      "collisions": 8827,
      "assembled": 8828,
      "developers": 8829,
      "balancing": 8830,
      "spreadsheet": 8831,
      "welcome": 8832,
      "preparing": 8833,
      "pagination": 8834,
      "morph": 8835,
      "leaks": 8836,
      "scrapviews": 8837,
      "sqlnontransientconnectionexception": 8838,
      "unboxing": 8839,
      "participate": 8840,
      "orthog": 8841,
      "rectional": 8842,
      "ceiling": 8843,
      "suggested": 8844,
      "omitted": 8845,
      "subexpressions": 8846,
      "concurrenthashmap": 8847,
      "repainted": 8848,
      "alphanumeric": 8849,
      "ingredient": 8850,
      "lockablefilewriter": 8851,
      "precalculated": 8852,
      "manufacturer": 8853,
      "primarily": 8854,
      "ao": 8855,
      "eu": 8856,
      "hue": 8857,
      "him": 8858,
      "jap": 8859,
      "jul": 8860,
      "jbutton": 8861,
      "jlabel": 8862,
      "joptionpane": 8863,
      "lhs": 8864,
      "mk": 8865,
      "rum": 8866,
      "rvm": 8867,
      "sdf": 8868,
      "slight": 8869,
      "tan": 8870,
      "reconnection": 8871,
      "terexception": 8872,
      "onscroll": 8873,
      "onresume": 8874,
      "ann": 8875,
      "enlarge": 8876,
      "enforces": 8877,
      "ervices": 8878,
      "toindex": 8879,
      "ofile": 8880,
      "league": 8881,
      "meg": 8882,
      "chap": 8883,
      "chem": 8884,
      "neath": 8885,
      "ivari": 8886,
      "unregistered": 8887,
      "undeploy": 8888,
      "uninterruptible": 8889,
      "spaced": 8890,
      "loon": 8891,
      "beacon": 8892,
      "likes": 8893,
      "fromindex": 8894,
      "obutton": 8895,
      "motor": 8896,
      "park": 8897,
      "parall": 8898,
      "ambi": 8899,
      "compliance": 8900,
      "arraytype": 8901,
      "replies": 8902,
      "paired": 8903,
      "patient": 8904,
      "commented": 8905,
      "tribut": 8906,
      "desde": 8907,
      "writers": 8908,
      "ago": 8909,
      "mainly": 8910,
      "boxed": 8911,
      "subpopulation": 8912,
      "heav": 8913,
      "hemer": 8914,
      "actionmap": 8915,
      "cale": 8916,
      "configs": 8917,
      "configuring": 8918,
      "functionally": 8919,
      "functiontypeexpression": 8920,
[...]
